#pragma once

#ifdef __has_attribute
#define HAVE_ATTRIBUTE(x) __has_attribute(x)
#else
#define HAVE_ATTRIBUTE(x) 0
#endif
#if HAVE_ATTRIBUTE(aligned) || (defined(__GNUC__) && !defined(__clang__))
#define DATA_ALIGN_ATTRIBUTE __attribute__((aligned(4)))
#else
#define DATA_ALIGN_ATTRIBUTE
#endif

// automatically configure network
#define TF_NUM_INPUTS 3
#define TF_NUM_OUTPUTS 1
#define TF_NUM_OPS 1
#define TF_OP_FULLYCONNECTED

/** model size = 13892 bytes **/
const unsigned char model[] DATA_ALIGN_ATTRIBUTE = { 0x1c, 0x00, 0x00, 0x00, 0x54, 0x46, 0x4c, 0x33, 0x14, 0x00, 0x20, 0x00, 0x1c, 0x00, 0x18, 0x00, 0x14, 0x00, 0x10, 0x00, 0x0c, 0x00, 0x00, 0x00, 0x08, 0x00, 0x04, 0x00, 0x14, 0x00, 0x00, 0x00, 0x1c, 0x00, 0x00, 0x00, 0x98, 0x00, 0x00, 0x00, 0xf0, 0x00, 0x00, 0x00, 0x30, 0x2f, 0x00, 0x00, 0x40, 0x2f, 0x00, 0x00, 0xf0, 0x35, 0x00, 0x00, 0x03, 0x00, 0x00, 0x00, 0x01, 0x00, 0x00, 0x00, 0x10, 0x00, 0x00, 0x00, 0x00, 0x00, 0x0a, 0x00, 0x10, 0x00, 0x0c, 0x00, 0x08, 0x00, 0x04, 0x00, 0x0a, 0x00, 0x00, 0x00, 0x0c, 0x00, 0x00, 0x00, 0x1c, 0x00, 0x00, 0x00, 0x3c, 0x00, 0x00, 0x00, 0x0f, 0x00, 0x00, 0x00, 0x73, 0x65, 0x72, 0x76, 0x69, 0x6e, 0x67, 0x5f, 0x64, 0x65, 0x66, 0x61, 0x75, 0x6c, 0x74, 0x00, 0x01, 0x00, 0x00, 0x00, 0x04, 0x00, 0x00, 0x00, 0x90, 0xff, 0xff, 0xff, 0x0c, 0x00, 0x00, 0x00, 0x04, 0x00, 0x00, 0x00, 0x08, 0x00, 0x00, 0x00, 0x64, 0x65, 0x6e, 0x73, 0x65, 0x5f, 0x32, 0x30, 0x00, 0x00, 0x00, 0x00, 0x01, 0x00, 0x00, 0x00, 0x04, 0x00, 0x00, 0x00, 0x62, 0xd1, 0xff, 0xff, 0x04, 0x00, 0x00, 0x00, 0x0e, 0x00, 0x00, 0x00, 0x64, 0x65, 0x6e, 0x73, 0x65, 0x5f, 0x31, 0x37, 0x5f, 0x69, 0x6e, 0x70, 0x75, 0x74, 0x00, 0x00, 0x02, 0x00, 0x00, 0x00, 0x34, 0x00, 0x00, 0x00, 0x04, 0x00, 0x00, 0x00, 0xdc, 0xff, 0xff, 0xff, 0x0f, 0x00, 0x00, 0x00, 0x04, 0x00, 0x00, 0x00, 0x13, 0x00, 0x00, 0x00, 0x43, 0x4f, 0x4e, 0x56, 0x45, 0x52, 0x53, 0x49, 0x4f, 0x4e, 0x5f, 0x4d, 0x45, 0x54, 0x41, 0x44, 0x41, 0x54, 0x41, 0x00, 0x08, 0x00, 0x0c, 0x00, 0x08, 0x00, 0x04, 0x00, 0x08, 0x00, 0x00, 0x00, 0x0e, 0x00, 0x00, 0x00, 0x04, 0x00, 0x00, 0x00, 0x13, 0x00, 0x00, 0x00, 0x6d, 0x69, 0x6e, 0x5f, 0x72, 0x75, 0x6e, 0x74, 0x69, 0x6d, 0x65, 0x5f, 0x76, 0x65, 0x72, 0x73, 0x69, 0x6f, 0x6e, 0x00, 0x10, 0x00, 0x00, 0x00, 0x3c, 0x2e, 0x00, 0x00, 0x34, 0x2e, 0x00, 0x00, 0x20, 0x2e, 0x00, 0x00, 0xc8, 0x2d, 0x00, 0x00, 0x38, 0x2d, 0x00, 0x00, 0x28, 0x2c, 0x00, 0x00, 0x18, 0x29, 0x00, 0x00, 0x08, 0x09, 0x00, 0x00, 0xf8, 0x00, 0x00, 0x00, 0xa8, 0x00, 0x00, 0x00, 0xa0, 0x00, 0x00, 0x00, 0x98, 0x00, 0x00, 0x00, 0x90, 0x00, 0x00, 0x00, 0x88, 0x00, 0x00, 0x00, 0x68, 0x00, 0x00, 0x00, 0x04, 0x00, 0x00, 0x00, 0x1e, 0xd2, 0xff, 0xff, 0x04, 0x00, 0x00, 0x00, 0x54, 0x00, 0x00, 0x00, 0x0c, 0x00, 0x00, 0x00, 0x08, 0x00, 0x0e, 0x00, 0x08, 0x00, 0x04, 0x00, 0x08, 0x00, 0x00, 0x00, 0x10, 0x00, 0x00, 0x00, 0x24, 0x00, 0x00, 0x00, 0x00, 0x00, 0x06, 0x00, 0x08, 0x00, 0x04, 0x00, 0x06, 0x00, 0x00, 0x00, 0x04, 0x00, 0x00, 0x00, 0x00, 0x00, 0x00, 0x00, 0x00, 0x00, 0x0a, 0x00, 0x10, 0x00, 0x0c, 0x00, 0x08, 0x00, 0x04, 0x00, 0x0a, 0x00, 0x00, 0x00, 0x02, 0x00, 0x00, 0x00, 0x02, 0x00, 0x00, 0x00, 0x04, 0x00, 0x00, 0x00, 0x06, 0x00, 0x00, 0x00, 0x32, 0x2e, 0x31, 0x35, 0x2e, 0x30, 0x00, 0x00, 0x7e, 0xd2, 0xff, 0xff, 0x04, 0x00, 0x00, 0x00, 0x10, 0x00, 0x00, 0x00, 0x31, 0x2e, 0x35, 0x2e, 0x30, 0x00, 0x00, 0x00, 0x00, 0x00, 0x00, 0x00, 0x00, 0x00, 0x00, 0x00, 0xf0, 0xcb, 0xff, 0xff, 0xf4, 0xcb, 0xff, 0xff, 0xf8, 0xcb, 0xff, 0xff, 0xfc, 0xcb, 0xff, 0xff, 0xaa, 0xd2, 0xff, 0xff, 0x04, 0x00, 0x00, 0x00, 0x40, 0x00, 0x00, 0x00, 0x93, 0x45, 0xda, 0xbd, 0x73, 0x47, 0x00, 0x3f, 0xc2, 0xf4, 0xd5, 0xbe, 0x4c, 0x79, 0x57, 0x3f, 0xbe, 0xa7, 0x64, 0xbf, 0x1e, 0x58, 0xe5, 0xbe, 0xb5, 0x6d, 0x3e, 0xbf, 0x6a, 0xeb, 0x71, 0x3f, 0x78, 0xf6, 0x00, 0x3f, 0xa4, 0x17, 0x8d, 0xbd, 0xf9, 0x10, 0x6e, 0xbe, 0xc1, 0x40, 0x0b, 0xbf, 0x08, 0x5d, 0xd8, 0xbd, 0x23, 0x04, 0x01, 0xbf, 0x2d, 0xe7, 0x53, 0xbf, 0xdd, 0xda, 0xac, 0x3e, 0xf6, 0xd2, 0xff, 0xff, 0x04, 0x00, 0x00, 0x00, 0x00, 0x08, 0x00, 0x00, 0x69, 0x6e, 0x08, 0x3d, 0x76, 0xde, 0xd4, 0xbd, 0x57, 0x6d, 0x04, 0x3d, 0x25, 0x2e, 0x9f, 0xbe, 0xb3, 0xe1, 0xcf, 0x3d, 0x71, 0xd7, 0xab, 0x3e, 0x75, 0x6c, 0x3f, 0x3e, 0x58, 0x74, 0x6f, 0xbe, 0x70, 0x7e, 0xa0, 0xbd, 0x73, 0xf5, 0x94, 0xbe, 0x23, 0x89, 0x29, 0xbe, 0xdf, 0xdc, 0x93, 0x3e, 0x83, 0xaa, 0xfe, 0xbd, 0x0e, 0x26, 0x62, 0x3e, 0x29, 0x96, 0x52, 0xbe, 0x1b, 0xde, 0x81, 0xbe, 0xb1, 0x56, 0x62, 0xbe, 0x93, 0xf2, 0x66, 0x3e, 0xce, 0xbc, 0xe3, 0xbd, 0xeb, 0x61, 0x72, 0x3e, 0x81, 0x5c, 0xa1, 0xbe, 0x95, 0x9f, 0xb6, 0xbe, 0x2a, 0xd2, 0x69, 0x3e, 0x01, 0xd9, 0x56, 0x3e, 0x9e, 0xe3, 0x3e, 0xbe, 0xb2, 0x6c, 0x8f, 0xbe, 0x59, 0x4c, 0xaa, 0x3d, 0x02, 0xea, 0x5f, 0x3e, 0x7c, 0x9c, 0xe4, 0x3d, 0xe9, 0x8c, 0xad, 0x3e, 0xae, 0x84, 0x9c, 0xbe, 0x8c, 0x3d, 0xad, 0xbe, 0x91, 0x5e, 0x21, 0xbf, 0xcd, 0x15, 0x82, 0xbd, 0x1d, 0xee, 0x2f, 0x3f, 0xc2, 0xb2, 0xa7, 0x3e, 0x64, 0xc6, 0x19, 0x3f, 0xe5, 0x05, 0x18, 0x3f, 0xfc, 0xba, 0xf9, 0xbd, 0xb2, 0xfc, 0x94, 0x3f, 0x0b, 0x6a, 0x7e, 0x3d, 0x45, 0x64, 0x01, 0xbf, 0x54, 0x08, 0x9e, 0x3d, 0x96, 0xea, 0x29, 0x3e, 0xd3, 0xa6, 0x9e, 0xbe, 0xde, 0x52, 0x4c, 0x3e, 0x8c, 0x01, 0x46, 0x3f, 0xf1, 0xc4, 0x80, 0x3e, 0x12, 0xbe, 0x1e, 0x3e, 0x94, 0x36, 0x36, 0x3f, 0x8e, 0x14, 0xa2, 0xbe, 0x05, 0xda, 0x04, 0xbf, 0x47, 0x2f, 0xd8, 0xbd, 0x24, 0x77, 0xf8, 0xbc, 0x04, 0xd5, 0xe2, 0x3d, 0xe4, 0x22, 0x6a, 0x3e, 0x07, 0xde, 0xfd, 0x3e, 0xf1, 0x77, 0x03, 0x3e, 0xa4, 0x8c, 0x27, 0x3f, 0xec, 0x13, 0x97, 0xbe, 0x9a, 0x27, 0x0a, 0xbe, 0xc4, 0x12, 0x3c, 0x3f, 0x8a, 0xf6, 0x0c, 0xbf, 0x10, 0xfd, 0x88, 0x3e, 0xef, 0x13, 0xf3, 0xbd, 0x1d, 0x72, 0x4b, 0xbe, 0x40, 0x50, 0x34, 0x3e, 0x78, 0xd1, 0x9e, 0xbe, 0x57, 0x0e, 0x5b, 0x3e, 0x0e, 0x1f, 0x83, 0x3e, 0x90, 0xfa, 0x22, 0x3e, 0x0a, 0x6b, 0xc6, 0xbe, 0x88, 0x91, 0x17, 0xbd, 0x49, 0xe8, 0x55, 0xbe, 0x34, 0xeb, 0x2c, 0xbe, 0xc4, 0x7c, 0xcd, 0x3d, 0x15, 0x45, 0xcf, 0xbd, 0xb6, 0xf2, 0xb7, 0xbc, 0x55, 0xb1, 0x51, 0x3e, 0x4b, 0xa1, 0x3c, 0xbe, 0x99, 0xcb, 0xab, 0xbe, 0x21, 0xdd, 0x86, 0x3e, 0x2a, 0xfe, 0x5a, 0x3e, 0x8e, 0xb4, 0x9c, 0xbe, 0xd5, 0xe8, 0x40, 0x3e, 0xdf, 0xca, 0x85, 0xbe, 0x9d, 0x1f, 0xb2, 0xbe, 0x0b, 0x81, 0x4c, 0x3e, 0x73, 0x07, 0x25, 0x3e, 0x4e, 0xbe, 0x4c, 0x3e, 0x05, 0x42, 0xb7, 0xbd, 0x4e, 0x3c, 0x5b, 0x3e, 0x04, 0x56, 0x72, 0x3e, 0x35, 0x91, 0xd1, 0xbe, 0xd6, 0x95, 0xe8, 0xbd, 0x83, 0x6f, 0xbe, 0x3d, 0x68, 0x7e, 0x2a, 0xbd, 0xe9, 0x53, 0xb6, 0x3e, 0x86, 0x9b, 0x97, 0x3e, 0x94, 0x5f, 0x98, 0xbc, 0x2d, 0x44, 0x30, 0x3e, 0x24, 0xd8, 0x33, 0x3f, 0xa3, 0x25, 0xde, 0xbd, 0xb3, 0x34, 0xf3, 0x3e, 0xd7, 0x79, 0xd9, 0xbb, 0xc5, 0x24, 0x43, 0xbe, 0x41, 0xf5, 0x66, 0x3e, 0x5d, 0x0b, 0x1b, 0xbe, 0xfb, 0x86, 0x80, 0xbe, 0x1f, 0xe6, 0xd8, 0x3d, 0x9c, 0xba, 0xa0, 0x3e, 0x00, 0x4e, 0x2a, 0x3a, 0xd1, 0x2a, 0x70, 0xbe, 0x05, 0x37, 0x4a, 0x3f, 0xa6, 0xc0, 0xbe, 0xbe, 0xab, 0x94, 0xf5, 0xbe, 0x4e, 0x7c, 0x90, 0xbe, 0xe5, 0xf3, 0xb6, 0xbe, 0x10, 0x74, 0x9d, 0xbc, 0xbf, 0x82, 0x60, 0xbe, 0xff, 0x0e, 0xe3, 0x3e, 0x6e, 0xa1, 0x8f, 0x3d, 0x27, 0xdc, 0x11, 0x3f, 0x20, 0x54, 0x11, 0x3c, 0xa9, 0xea, 0x99, 0x3d, 0xe3, 0x39, 0xe5, 0x3e, 0x87, 0xbe, 0x52, 0xbe, 0x72, 0xc0, 0x36, 0x3f, 0xc1, 0xd6, 0x30, 0x3e, 0x53, 0xa5, 0x7b, 0xbe, 0x62, 0x89, 0x81, 0xbe, 0x0d, 0x44, 0x02, 0x3e, 0x8e, 0x44, 0x93, 0xbe, 0x33, 0x18, 0x1c, 0xbf, 0x1e, 0x47, 0x6a, 0xbe, 0x0c, 0xb8, 0x66, 0xbf, 0x69, 0x41, 0xd2, 0x3e, 0xaf, 0x02, 0x0a, 0x3e, 0xed, 0xa1, 0xa6, 0xbe, 0xb6, 0xe4, 0x7b, 0x3e, 0xf8, 0x17, 0xfb, 0x3e, 0xb5, 0x7c, 0xf0, 0x3e, 0xd3, 0x92, 0xd7, 0xbe, 0x49, 0xb3, 0x84, 0x3e, 0xdb, 0x93, 0x56, 0x3e, 0x75, 0xea, 0x15, 0xbf, 0xfc, 0x44, 0x8b, 0x3e, 0x4b, 0xbf, 0xdc, 0x3e, 0x24, 0xb5, 0x45, 0xbd, 0x1f, 0x7f, 0xc7, 0x3e, 0x7c, 0x6b, 0xb4, 0xbe, 0xd8, 0xb3, 0x78, 0xbe, 0xf0, 0xd9, 0x49, 0xbe, 0xc9, 0x40, 0x80, 0xbd, 0xe7, 0x3f, 0x16, 0xbe, 0x68, 0x92, 0x2d, 0x3d, 0x5a, 0xb0, 0xa1, 0x3e, 0x1b, 0xad, 0x21, 0xbf, 0x88, 0x9d, 0x7a, 0x3e, 0x25, 0xb5, 0x55, 0xbe, 0x7c, 0xff, 0x14, 0xbe, 0x02, 0x79, 0xa5, 0x3e, 0xea, 0x48, 0x64, 0x3e, 0xb7, 0x0f, 0x79, 0xbe, 0xe1, 0x83, 0xa9, 0xbe, 0x47, 0x86, 0x1d, 0xbe, 0x96, 0x3e, 0xa2, 0x3d, 0xb8, 0x24, 0x40, 0xbd, 0x1e, 0xd3, 0x07, 0x3e, 0x71, 0x9e, 0xea, 0xbd, 0xf9, 0x2c, 0x80, 0xbe, 0x40, 0x7e, 0xf4, 0xbb, 0xd2, 0xf5, 0x68, 0x3e, 0xd4, 0x42, 0x07, 0xbe, 0x95, 0xaa, 0x9b, 0xbe, 0x1b, 0x61, 0x5d, 0xbe, 0x9d, 0x9a, 0x3d, 0xbe, 0xc5, 0x57, 0x9e, 0x3e, 0x98, 0x43, 0x20, 0xbb, 0x35, 0xfc, 0x96, 0xbe, 0x7c, 0xd3, 0x9e, 0xbd, 0x93, 0x99, 0x9f, 0x3e, 0x72, 0xb4, 0x66, 0x3e, 0x6d, 0x1e, 0x7d, 0xbd, 0x8e, 0xfd, 0x64, 0x3e, 0x58, 0xdb, 0x87, 0xbe, 0x40, 0x56, 0x90, 0x3d, 0x3b, 0x9b, 0xb1, 0xbe, 0xea, 0x48, 0xf7, 0xbd, 0xb6, 0x8a, 0x77, 0x3e, 0xe0, 0xd6, 0x75, 0x3d, 0xce, 0xd2, 0xfc, 0xbd, 0xc4, 0x5c, 0x02, 0x3f, 0xbd, 0xcb, 0xa4, 0x3d, 0x9d, 0x80, 0x13, 0xbf, 0xf6, 0x3b, 0xa4, 0x3c, 0x69, 0xd3, 0xaf, 0xbe, 0xe8, 0x4e, 0x1f, 0xbf, 0x96, 0xe9, 0x5b, 0x3e, 0x5b, 0x6a, 0x78, 0xbf, 0xe5, 0x47, 0xbf, 0x3e, 0xa1, 0x7d, 0x11, 0x3f, 0x6c, 0xb4, 0xc5, 0x3c, 0x70, 0x4c, 0x0a, 0xbe, 0x78, 0x8d, 0x02, 0xbc, 0x25, 0xaf, 0xca, 0x3e, 0xae, 0xb8, 0x3b, 0xbf, 0x47, 0x15, 0x92, 0x3e, 0x01, 0xf7, 0x47, 0x3e, 0xf0, 0x72, 0x6b, 0xbe, 0xfd, 0xcd, 0xf5, 0x3e, 0xc4, 0xf3, 0x3c, 0x3e, 0xad, 0xe7, 0xc1, 0xbe, 0x3e, 0x83, 0x5e, 0x3e, 0x42, 0xd6, 0x56, 0xbe, 0x43, 0x78, 0x6f, 0xbe, 0x7b, 0x9c, 0xc4, 0xbe, 0xda, 0x5b, 0x3b, 0xbe, 0x9c, 0x38, 0xf2, 0xbd, 0x90, 0xfb, 0x14, 0x3d, 0x35, 0x3f, 0x51, 0xbd, 0x60, 0x76, 0x00, 0xbf, 0x07, 0x6b, 0xfe, 0x3e, 0x5a, 0xa5, 0xf2, 0xbe, 0x1e, 0xad, 0x1d, 0xbf, 0xf1, 0x75, 0xed, 0x3e, 0xe7, 0x5c, 0x2b, 0x3f, 0x3b, 0x82, 0xde, 0x3d, 0xa8, 0xf1, 0x1b, 0x3f, 0xf0, 0xed, 0x2d, 0x3f, 0xec, 0x31, 0x4f, 0xbd, 0xed, 0xe5, 0x0a, 0x3f, 0xfc, 0xe2, 0x5e, 0xbe, 0x90, 0x5a, 0x61, 0xbd, 0xec, 0x5f, 0x12, 0x3f, 0xba, 0x97, 0x01, 0xbe, 0x64, 0xf2, 0x28, 0xbe, 0x78, 0x1b, 0xa8, 0x3c, 0xe3, 0x8d, 0x22, 0x3f, 0xdc, 0xbb, 0xaa, 0x3d, 0x25, 0x28, 0x81, 0x3e, 0x0f, 0xcc, 0xf1, 0x3e, 0xdf, 0x53, 0x3d, 0xbf, 0xd8, 0xea, 0xf8, 0xbc, 0xde, 0xe6, 0xc7, 0x3d, 0x45, 0xa2, 0xdc, 0xbd, 0x40, 0x92, 0x0f, 0x3d, 0x58, 0xac, 0x98, 0xbd, 0x21, 0x43, 0x2e, 0x3f, 0xca, 0xe5, 0x13, 0xbe, 0x8e, 0x1f, 0x03, 0x3f, 0xca, 0xc5, 0x13, 0x3e, 0x4c, 0xf3, 0xe2, 0xbe, 0x14, 0x08, 0x02, 0x3f, 0x91, 0xd3, 0x0f, 0xbf, 0xb3, 0xe2, 0xa9, 0x3e, 0x7e, 0xd8, 0x85, 0xbe, 0x07, 0xcb, 0x9a, 0xbe, 0x08, 0xb0, 0x19, 0x3d, 0x60, 0x20, 0x1d, 0xbd, 0xc0, 0xb2, 0x7a, 0x3c, 0x94, 0xa1, 0xbd, 0xbd, 0xa0, 0x35, 0xb4, 0xbe, 0x88, 0x6b, 0x87, 0xbe, 0x20, 0xf6, 0x64, 0xbd, 0x9d, 0x9d, 0x14, 0xbe, 0x24, 0x85, 0x16, 0xbe, 0xc2, 0x06, 0x03, 0xbe, 0xef, 0x9f, 0xa1, 0xbe, 0x99, 0xb2, 0x8b, 0xbe, 0x28, 0x68, 0x7e, 0x3d, 0x65, 0xad, 0xa6, 0x3e, 0xa6, 0x38, 0x6d, 0xbe, 0x56, 0x98, 0x75, 0x3e, 0x8b, 0xec, 0x9b, 0xbe, 0x08, 0xf1, 0x76, 0x3d, 0x19, 0x90, 0x93, 0x3e, 0x24, 0x3c, 0xba, 0x3d, 0xf0, 0x24, 0x04, 0x3e, 0xb0, 0x91, 0x78, 0xbe, 0x70, 0x68, 0xbb, 0x3d, 0xd0, 0x73, 0x5b, 0xbd, 0xb4, 0x04, 0x3a, 0xbe, 0x50, 0x9e, 0x5f, 0xbd, 0xa0, 0x2d, 0x29, 0x3c, 0xdc, 0x9f, 0xd5, 0x3d, 0xfc, 0x1c, 0xad, 0xbd, 0x40, 0xba, 0xb8, 0xbc, 0xfd, 0x08, 0x83, 0xbe, 0x27, 0xb8, 0x87, 0x3e, 0x8d, 0x0e, 0xb2, 0x3c, 0x6d, 0xba, 0xdb, 0xbe, 0x4d, 0x62, 0x91, 0xbd, 0xe2, 0x16, 0xc1, 0x3d, 0xc8, 0x5c, 0xa9, 0xbe, 0xed, 0x30, 0x6f, 0x3e, 0xd4, 0x37, 0xac, 0xbe, 0x46, 0x5c, 0x44, 0xbe, 0x21, 0x49, 0x4e, 0x3e, 0x4e, 0x9c, 0x69, 0x3e, 0xc5, 0x16, 0x2e, 0xbe, 0xe9, 0x12, 0x57, 0xbd, 0xda, 0xce, 0x9a, 0xbe, 0x9a, 0x2c, 0x15, 0x3e, 0x9e, 0xf9, 0x1a, 0x3e, 0x59, 0x93, 0x65, 0x3e, 0xd4, 0xd3, 0x81, 0x3e, 0x83, 0xf4, 0x0a, 0x3e, 0xf3, 0x0e, 0x2a, 0xbe, 0x56, 0x3d, 0x3b, 0xbd, 0x91, 0x92, 0x98, 0xbe, 0xba, 0xa5, 0x5b, 0x3e, 0x8e, 0x24, 0x7f, 0x3e, 0x38, 0x3c, 0x01, 0x3e, 0x76, 0x37, 0x81, 0xbe, 0x58, 0x31, 0x84, 0xbe, 0x66, 0xf1, 0x85, 0xbe, 0x13, 0x41, 0x48, 0x3e, 0xf8, 0xb4, 0x3b, 0x3e, 0xd8, 0x76, 0x84, 0xbe, 0x01, 0x05, 0x6d, 0x3d, 0x54, 0x84, 0x99, 0xbe, 0x26, 0x21, 0x99, 0xbd, 0x2a, 0xac, 0x1f, 0xbe, 0xdb, 0x06, 0xf3, 0x3d, 0x53, 0x6e, 0x92, 0xbe, 0xd0, 0x58, 0xa7, 0xbe, 0x15, 0xe7, 0x91, 0x3e, 0x9f, 0xe8, 0x3b, 0xbd, 0xe6, 0x52, 0x50, 0xbd, 0x28, 0xfa, 0x3b, 0xbe, 0x1e, 0x10, 0xad, 0xbe, 0xb8, 0x3a, 0x0a, 0xbd, 0xf7, 0x77, 0x82, 0xbe, 0x86, 0xaa, 0x31, 0xbe, 0x5f, 0x18, 0x8b, 0x3e, 0xf8, 0xbb, 0xd3, 0xbd, 0x37, 0xb2, 0x0e, 0x3e, 0xb5, 0x3e, 0x58, 0xbe, 0x5a, 0x1a, 0x79, 0xbe, 0xfc, 0x8e, 0x4f, 0xbe, 0xf9, 0x20, 0xb0, 0xbd, 0x14, 0x9f, 0xe6, 0x3d, 0x2a, 0x87, 0xe2, 0x3d, 0x24, 0x14, 0xb7, 0xbd, 0x60, 0x20, 0x1a, 0xbd, 0x11, 0x0e, 0xe2, 0xbd, 0xc0, 0x4c, 0x3c, 0xbe, 0x3d, 0xcf, 0x93, 0x3e, 0x11, 0x9c, 0xa6, 0x3e, 0xac, 0xd2, 0x9b, 0xbe, 0x1c, 0xa4, 0xa1, 0xbe, 0x78, 0x7e, 0x23, 0x3f, 0x6e, 0x6c, 0x7b, 0xbe, 0x2b, 0xc8, 0x32, 0xbe, 0x9a, 0x2f, 0x47, 0x3d, 0x9f, 0x95, 0x2e, 0xbd, 0xcf, 0xcf, 0x10, 0xbf, 0x80, 0x62, 0xa5, 0xbd, 0xf0, 0x87, 0x9d, 0xbf, 0x3d, 0xef, 0x96, 0x3e, 0xff, 0xd0, 0x26, 0x3e, 0x46, 0x5c, 0x09, 0xbe, 0x10, 0x36, 0xaa, 0xbc, 0x0b, 0x93, 0x05, 0x3f, 0x79, 0x6c, 0x00, 0x3f, 0xf9, 0xf7, 0x45, 0xbf, 0x4e, 0x0a, 0x01, 0xbe, 0xcb, 0xca, 0x54, 0x3d, 0xa9, 0xf9, 0xeb, 0xbe, 0xc8, 0x6c, 0x69, 0x3e, 0xc1, 0xda, 0xb9, 0x3e, 0x2e, 0xf8, 0x77, 0xbc, 0x94, 0x02, 0x22, 0x3e, 0xf3, 0x8c, 0xa8, 0xbe, 0x31, 0xff, 0x73, 0x3e, 0xfa, 0x46, 0x76, 0xbe, 0xf2, 0xb5, 0xaa, 0x3e, 0x76, 0x0f, 0x9f, 0xbc, 0x3e, 0x7c, 0xa0, 0xbe, 0xb0, 0xe4, 0x6b, 0x3e, 0xed, 0x05, 0x1d, 0xbf, 0x88, 0x1e, 0xd4, 0x3e, 0x93, 0xf3, 0x13, 0xbf, 0x73, 0xd5, 0x90, 0x3e, 0x1c, 0xb7, 0x8e, 0xbd, 0x3b, 0x3d, 0x91, 0xbe, 0xaa, 0x85, 0x39, 0xbe, 0x27, 0xfe, 0x80, 0xbe, 0x8e, 0xd2, 0x3a, 0x3e, 0xb1, 0x40, 0x1d, 0xbe, 0xec, 0x7f, 0xac, 0xbd, 0xcc, 0xa1, 0xca, 0xbd, 0xc7, 0xdb, 0x8f, 0xbe, 0x60, 0x24, 0x98, 0xbd, 0x76, 0x3d, 0x67, 0x3e, 0x44, 0x25, 0x8f, 0xbe, 0x8e, 0xcf, 0x6d, 0x3e, 0x20, 0xa3, 0x06, 0x3d, 0x28, 0x4b, 0x92, 0x3d, 0x98, 0x42, 0x15, 0x3e, 0xbf, 0xec, 0x9c, 0x3e, 0x02, 0xde, 0x8f, 0xbe, 0x55, 0x74, 0x7a, 0xbe, 0x6a, 0xf6, 0x60, 0x3e, 0x47, 0xa5, 0x9b, 0xbe, 0x00, 0x90, 0x2f, 0x3c, 0x00, 0x04, 0x27, 0x3b, 0xc6, 0x1f, 0x4a, 0x3e, 0xb6, 0xbd, 0x27, 0x3e, 0xd4, 0x36, 0xa1, 0xbe, 0xce, 0x51, 0x52, 0x3e, 0xf8, 0x6d, 0x35, 0x3d, 0x18, 0xda, 0x30, 0x3d, 0xb0, 0x91, 0xfd, 0x3d, 0x70, 0xb3, 0xd6, 0x3c, 0xb4, 0x46, 0xd8, 0x3e, 0x86, 0xaa, 0x8c, 0x3d, 0x9c, 0xbe, 0xaa, 0xbe, 0xb6, 0xf3, 0x59, 0xbe, 0xda, 0x1f, 0x9e, 0xbe, 0x5a, 0xe1, 0x92, 0xbe, 0xb3, 0x66, 0x69, 0x3e, 0x4d, 0xc8, 0x82, 0xbf, 0x57, 0x11, 0xdf, 0x3e, 0x64, 0x2b, 0xa6, 0x3e, 0x2b, 0xf5, 0xc7, 0xbe, 0x96, 0xeb, 0x77, 0xbe, 0xd2, 0x35, 0x04, 0x3f, 0xf4, 0xad, 0x48, 0xbd, 0x04, 0x65, 0xd6, 0xbd, 0x8a, 0x20, 0x2a, 0xbe, 0x1e, 0x35, 0xac, 0x3e, 0xc2, 0x81, 0x6a, 0xbe, 0x43, 0x62, 0x03, 0x3f, 0x9b, 0x88, 0x3a, 0x3e, 0xc3, 0x81, 0x46, 0x3d, 0x06, 0x63, 0x00, 0x3f, 0x20, 0xe1, 0xa4, 0xbe, 0x86, 0xfd, 0x88, 0xbd, 0x0c, 0xd6, 0x13, 0xbe, 0x49, 0xb0, 0xbd, 0xbc, 0xd5, 0x8c, 0x45, 0x3c, 0xc6, 0xee, 0x2d, 0x3e, 0x6b, 0x95, 0x09, 0x3f, 0x03, 0xd0, 0xd9, 0xbe, 0x95, 0x33, 0x49, 0xbd, 0xcf, 0x5b, 0xac, 0xbe, 0x88, 0xdb, 0x01, 0x3f, 0x25, 0x30, 0x7a, 0x3e, 0xab, 0x32, 0x8d, 0xbe, 0x20, 0xb6, 0x5c, 0x3e, 0x7c, 0x5a, 0x00, 0xbf, 0x87, 0x17, 0x55, 0xbe, 0x34, 0x29, 0x8a, 0xbd, 0x3c, 0x75, 0x46, 0xbf, 0xc9, 0x1c, 0x0b, 0xbe, 0xe9, 0x0f, 0xa7, 0x3e, 0x76, 0xa3, 0x95, 0xbe, 0xae, 0x87, 0x0f, 0x3e, 0x61, 0xeb, 0xfc, 0x3e, 0x03, 0xf7, 0x15, 0x3e, 0xa0, 0x3c, 0xec, 0xbd, 0xd1, 0xf4, 0x82, 0x3e, 0x5f, 0xd1, 0xb5, 0x3e, 0xb3, 0xb9, 0xc0, 0xbe, 0x5b, 0xad, 0xdd, 0x3e, 0x1b, 0x6d, 0xe7, 0x3e, 0x3c, 0x22, 0xac, 0xbd, 0x70, 0x21, 0xed, 0x3e, 0x32, 0xfe, 0x55, 0x3e, 0x41, 0x5d, 0x08, 0xbd, 0x32, 0x68, 0x84, 0xbe, 0x21, 0xfd, 0xba, 0x3d, 0xad, 0x65, 0xb0, 0xbe, 0x70, 0xd8, 0xd4, 0xbc, 0x6c, 0xb7, 0xd4, 0x3e, 0x8b, 0x42, 0x25, 0xbf, 0xa5, 0x21, 0x0d, 0x3f, 0xf1, 0x4d, 0x0d, 0xbf, 0xba, 0x1b, 0x3b, 0x3e, 0x2d, 0xda, 0xac, 0x3e, 0xf8, 0x9d, 0x6c, 0xbe, 0x32, 0xeb, 0x8d, 0xbe, 0xaa, 0xc3, 0x6c, 0xbe, 0x81, 0xa3, 0x35, 0x3e, 0x50, 0x79, 0xb8, 0x3d, 0x7c, 0x18, 0xd7, 0x3d, 0x2a, 0xfb, 0x84, 0xbe, 0xb6, 0x53, 0x07, 0xbd, 0xd4, 0xe7, 0x54, 0xbe, 0xe3, 0xc0, 0x9b, 0x3e, 0x5e, 0xec, 0x97, 0x3d, 0x15, 0x16, 0x67, 0x39, 0x88, 0x0b, 0x2d, 0xbe, 0x78, 0xbe, 0xe4, 0x3d, 0x05, 0xb4, 0xa3, 0xbe, 0x8a, 0x0f, 0x6e, 0xbd, 0xdc, 0x50, 0xcc, 0xbd, 0xd0, 0x10, 0x92, 0xbe, 0xd8, 0x1b, 0xcf, 0x3d, 0x12, 0x6c, 0x99, 0x3e, 0xc8, 0x28, 0x8a, 0xbd, 0xff, 0x05, 0x2f, 0xbe, 0x64, 0x66, 0x32, 0xbe, 0x79, 0x1e, 0x6f, 0x3e, 0x09, 0x65, 0x2e, 0xbc, 0x32, 0x14, 0x28, 0x3e, 0x28, 0x87, 0xce, 0xbc, 0x1b, 0x35, 0x01, 0xbe, 0xac, 0x3a, 0x82, 0x3d, 0x62, 0x77, 0x21, 0xbe, 0x02, 0xdb, 0xff, 0xff, 0x04, 0x00, 0x00, 0x00, 0x00, 0x20, 0x00, 0x00, 0x3b, 0x19, 0xb6, 0x3e, 0x58, 0x29, 0x7b, 0x3e, 0xb5, 0x61, 0xe2, 0x3d, 0xd9, 0xdb, 0x18, 0xbe, 0x43, 0x95, 0xc9, 0xbe, 0x51, 0x2c, 0x89, 0x3e, 0x6b, 0xdc, 0xef, 0xbc, 0x48, 0x94, 0x2a, 0xbe, 0x65, 0x6b, 0xd2, 0xbd, 0x5d, 0xa0, 0xa5, 0x3e, 0xb4, 0xb9, 0x69, 0x3e, 0xf8, 0x4f, 0xac, 0xbe, 0x3a, 0x22, 0x1a, 0x3d, 0xe5, 0x1c, 0x08, 0xbe, 0x00, 0x13, 0x5d, 0x3d, 0x59, 0x76, 0x69, 0xbe, 0xf9, 0x16, 0xa4, 0x3e, 0xbd, 0x77, 0x83, 0x3e, 0x72, 0x1a, 0xc2, 0x3e, 0xaa, 0x7e, 0xf7, 0x3e, 0x46, 0xb6, 0xa6, 0xbd, 0xde, 0x7b, 0xe8, 0x3d, 0xf0, 0x53, 0xf3, 0x3e, 0xb4, 0x11, 0xee, 0xbb, 0xaf, 0x21, 0xca, 0x3e, 0xa4, 0xbd, 0xb0, 0xbe, 0x8c, 0xb6, 0xad, 0x3e, 0x64, 0x54, 0x82, 0x3c, 0xb8, 0xaf, 0x82, 0xbd, 0xed, 0x48, 0x84, 0xbe, 0x50, 0xcd, 0x56, 0xbc, 0x10, 0x08, 0x5f, 0x3d, 0xb8, 0x29, 0x08, 0xbe, 0xe1, 0xa2, 0x1d, 0x3f, 0x97, 0xd2, 0xbb, 0xbd, 0x23, 0xf3, 0x70, 0x3d, 0xba, 0x5b, 0xff, 0x3d, 0x70, 0x50, 0x51, 0x3e, 0x73, 0x8a, 0x25, 0xba, 0xb6, 0xbd, 0xb4, 0x3e, 0x56, 0x62, 0x11, 0x3f, 0xfe, 0x9d, 0xca, 0xbe, 0x62, 0xae, 0xb7, 0xbc, 0x12, 0x23, 0x21, 0x3e, 0xf8, 0xe5, 0x1e, 0x3d, 0xb4, 0xe2, 0xdb, 0xbe, 0x37, 0x9f, 0x1d, 0x3e, 0x44, 0x45, 0x47, 0xbe, 0xb0, 0xf0, 0xe8, 0xbd, 0xa5, 0x8f, 0x31, 0xbe, 0x99, 0x54, 0xac, 0x3e, 0x0c, 0x1f, 0xcb, 0x3e, 0xdf, 0x95, 0x4f, 0xbd, 0x30, 0x7a, 0xef, 0x3d, 0x89, 0xee, 0x27, 0xbe, 0xa6, 0x71, 0x0a, 0x3d, 0x0c, 0xde, 0x42, 0x3e, 0xf4, 0x14, 0xba, 0x3d, 0xe1, 0xd0, 0xa5, 0x3e, 0x8d, 0x41, 0x2b, 0x3e, 0x19, 0xf9, 0xad, 0xbe, 0x00, 0xee, 0x86, 0x3a, 0xa8, 0xae, 0x5e, 0x3e, 0x07, 0xf8, 0x24, 0x3e, 0x83, 0xa5, 0x9c, 0xbe, 0xac, 0x1e, 0x94, 0xbe, 0x8f, 0x83, 0x40, 0x3a, 0x0d, 0xdb, 0xb0, 0x3e, 0x34, 0x24, 0xad, 0x3d, 0x92, 0x12, 0x50, 0xbe, 0x6a, 0xdd, 0xb7, 0xbd, 0x17, 0x1a, 0x36, 0x3f, 0xff, 0x88, 0x8b, 0x3d, 0x7f, 0xc6, 0x58, 0xbd, 0xfd, 0x8f, 0xeb, 0x3d, 0x34, 0x4f, 0xc2, 0x3e, 0xae, 0x2c, 0x07, 0x3e, 0x14, 0xc8, 0x14, 0x3f, 0xa6, 0x0b, 0x4d, 0xbe, 0xd6, 0x17, 0x2b, 0x3e, 0x71, 0x08, 0x96, 0x3e, 0x9e, 0x4a, 0x04, 0x3e, 0xd7, 0x7a, 0x1d, 0xbe, 0xfd, 0x2f, 0xcc, 0xbe, 0x29, 0x0c, 0x4b, 0x3d, 0x0a, 0xb9, 0x84, 0xbe, 0xa6, 0xc5, 0x40, 0xbe, 0x91, 0xc7, 0x76, 0xbe, 0x27, 0x98, 0x23, 0x3e, 0x66, 0xfe, 0xaa, 0x3d, 0xc7, 0x89, 0xd7, 0xbe, 0xb3, 0x7c, 0x07, 0xbe, 0x78, 0x76, 0xaa, 0xbd, 0xc9, 0x45, 0xa3, 0x3d, 0x3c, 0x1a, 0xb0, 0x3e, 0x40, 0xd8, 0x2d, 0x3e, 0x80, 0x3c, 0x78, 0xbd, 0x36, 0x4d, 0x1f, 0xbf, 0x81, 0x82, 0xa1, 0x3e, 0xba, 0x21, 0x73, 0x3e, 0xef, 0xde, 0xf1, 0xbd, 0xf7, 0xb4, 0x2d, 0x3e, 0x90, 0x8f, 0x2f, 0x3d, 0xc4, 0xf7, 0xbf, 0xbd, 0x75, 0x73, 0x9e, 0xbe, 0x24, 0x2d, 0x04, 0x3e, 0xd9, 0x33, 0x4a, 0x3e, 0x01, 0x1b, 0xc0, 0xbe, 0xf0, 0xe3, 0x6e, 0xbe, 0x9f, 0x86, 0xb4, 0x3e, 0x4c, 0xe1, 0xbe, 0x3d, 0xe4, 0xc2, 0x58, 0x3e, 0x70, 0x6f, 0x5f, 0xbe, 0xa5, 0x71, 0xf6, 0x3e, 0x27, 0x84, 0xb6, 0xbd, 0x26, 0xa3, 0xc8, 0xbd, 0x6e, 0x06, 0xa2, 0x3d, 0xe0, 0x6c, 0x26, 0x3e, 0x31, 0xe6, 0xa5, 0x3d, 0x01, 0xcc, 0x67, 0x3e, 0x74, 0x43, 0x11, 0xbf, 0xb2, 0xfc, 0xdb, 0x3d, 0xa4, 0x9f, 0xb1, 0x3d, 0x2c, 0xfd, 0x04, 0xbf, 0x2c, 0x3d, 0x30, 0x3e, 0x24, 0x69, 0x4f, 0xbe, 0xc9, 0xfa, 0x7e, 0x3e, 0xf8, 0x28, 0x2c, 0xbe, 0xa3, 0x5f, 0x6a, 0xbe, 0x13, 0x1b, 0x96, 0xbe, 0xf1, 0xb6, 0xd0, 0xbe, 0x3c, 0x80, 0xa9, 0x3e, 0x4b, 0xcd, 0xbb, 0x3e, 0x75, 0x0c, 0x0d, 0xbf, 0xf0, 0xde, 0xe3, 0xbc, 0x1e, 0xae, 0x7f, 0x3e, 0x91, 0x6b, 0x30, 0x3c, 0xa7, 0x32, 0x00, 0xbe, 0x60, 0x55, 0xb0, 0x3e, 0x43, 0x2a, 0xe1, 0x3e, 0x84, 0xa3, 0x1a, 0xbe, 0x5a, 0xeb, 0x35, 0x3e, 0x6f, 0xa2, 0x56, 0x3d, 0x72, 0x14, 0xab, 0x3d, 0x7d, 0xd2, 0x88, 0x3d, 0x0b, 0x5f, 0x00, 0x3d, 0xe2, 0x5d, 0xb7, 0xbe, 0x7d, 0x8d, 0xf4, 0xbe, 0xfb, 0xc8, 0x11, 0xbd, 0xd2, 0x5e, 0x91, 0xbd, 0x11, 0x43, 0x11, 0xbf, 0xd3, 0x2e, 0xce, 0xbe, 0x10, 0x40, 0xb0, 0xbe, 0xa6, 0xbb, 0x3f, 0x3c, 0xb4, 0x35, 0xcb, 0xbe, 0x5e, 0x5f, 0xd5, 0x3d, 0xb8, 0xbd, 0xbc, 0x3d, 0xce, 0x85, 0x8b, 0x3e, 0x20, 0xe5, 0x1b, 0x3d, 0xf0, 0x86, 0x40, 0x3d, 0x70, 0xab, 0x0b, 0xbe, 0x14, 0x8f, 0x8d, 0xbe, 0xf5, 0x76, 0xd8, 0xbd, 0x84, 0x76, 0x6f, 0xbe, 0x4c, 0xf3, 0x0d, 0x3e, 0x27, 0x74, 0x4a, 0x3e, 0xf7, 0x61, 0xc7, 0xbe, 0xbe, 0x20, 0x91, 0xbc, 0xd0, 0x9e, 0x1c, 0xbf, 0x3b, 0x69, 0xfa, 0x3d, 0x36, 0xa9, 0x9b, 0x3e, 0x14, 0xc5, 0x00, 0xbf, 0xa7, 0xe5, 0x50, 0xbe, 0xc9, 0xa5, 0x75, 0x3e, 0xc5, 0x7e, 0xe5, 0x3d, 0xd4, 0xc5, 0x32, 0x3e, 0xd0, 0x75, 0x78, 0xbe, 0xee, 0x7f, 0x01, 0x3e, 0x01, 0xc2, 0x22, 0xbd, 0x52, 0xc2, 0x76, 0x3d, 0x94, 0xd4, 0x36, 0xbd, 0x80, 0x1b, 0x93, 0x3d, 0xc5, 0x59, 0x55, 0x3d, 0xd0, 0x97, 0x23, 0x3e, 0x96, 0x3a, 0xe1, 0xbe, 0xd1, 0xf0, 0x3f, 0xbd, 0x54, 0x76, 0x0a, 0xbe, 0x3d, 0xff, 0x06, 0xbe, 0x5f, 0x6d, 0x4d, 0x3e, 0xd8, 0x31, 0x88, 0xbd, 0x30, 0x83, 0x91, 0x3e, 0x78, 0x8d, 0x8d, 0x3b, 0x71, 0x12, 0xd3, 0x3c, 0x66, 0x9c, 0x1f, 0xbd, 0xfb, 0x23, 0xa0, 0x3e, 0x8a, 0x99, 0xfb, 0x3d, 0x45, 0xf7, 0xa4, 0xbd, 0xa9, 0x68, 0xbb, 0x3e, 0x6d, 0x24, 0xf3, 0x3d, 0xa8, 0x5b, 0xa4, 0x3e, 0xed, 0xcb, 0x95, 0x3e, 0x5b, 0xe8, 0xb4, 0x3e, 0x73, 0x66, 0x9d, 0x3d, 0x25, 0x7c, 0xc1, 0x3e, 0xf5, 0xd8, 0x95, 0x3d, 0x81, 0xc9, 0xd8, 0x3e, 0xd0, 0xd4, 0x8f, 0xbc, 0xf5, 0x24, 0xc2, 0x3e, 0xba, 0xae, 0x0d, 0x3e, 0xc9, 0x7c, 0x86, 0x3e, 0x34, 0xfa, 0x03, 0x3c, 0x3c, 0xd7, 0x8d, 0x3d, 0xfd, 0xea, 0x80, 0xbd, 0xd0, 0x59, 0xb7, 0x3e, 0x18, 0xa0, 0x0c, 0x3e, 0x9c, 0xd7, 0x5c, 0x3e, 0xa8, 0xee, 0xa0, 0x3e, 0x27, 0xd2, 0x49, 0x3e, 0xb2, 0x86, 0x34, 0x3e, 0x31, 0x20, 0x8e, 0x3e, 0x40, 0x58, 0x0d, 0xbc, 0xc8, 0x68, 0x4d, 0xbd, 0xfe, 0x87, 0xe9, 0x3d, 0xd8, 0x7e, 0x6a, 0xbe, 0x20, 0x15, 0x72, 0xbd, 0x39, 0xd1, 0xc2, 0xbc, 0x70, 0x02, 0x63, 0x3d, 0x82, 0xf3, 0x2a, 0x3d, 0x1f, 0x7c, 0x65, 0x3d, 0x8a, 0x34, 0xba, 0x3e, 0x8c, 0x8d, 0xe2, 0xbd, 0x8a, 0xbe, 0x3b, 0xbc, 0x00, 0x80, 0xcf, 0x3e, 0xa0, 0xb9, 0xad, 0x3e, 0xb9, 0xd1, 0xe9, 0x3d, 0xcb, 0xb5, 0x62, 0x3d, 0xd9, 0x53, 0x62, 0xbb, 0xb0, 0xad, 0x68, 0x3e, 0x9f, 0x67, 0x59, 0x3e, 0x28, 0x24, 0xa5, 0x3d, 0x18, 0x24, 0x00, 0xbe, 0x36, 0xfa, 0x68, 0x3e, 0x31, 0x84, 0x8b, 0x3e, 0x82, 0x54, 0x9f, 0x3e, 0x6a, 0xa5, 0x40, 0x3e, 0x1c, 0x50, 0x30, 0x3e, 0xf6, 0xf5, 0x9c, 0xbd, 0x50, 0xe2, 0x72, 0x3e, 0xb9, 0x91, 0x32, 0x3d, 0x48, 0xb4, 0x96, 0x3d, 0x62, 0xf4, 0x7c, 0x3d, 0xf6, 0x00, 0x2b, 0x3e, 0xd4, 0xb8, 0x64, 0x3e, 0x78, 0xad, 0x76, 0x3e, 0x64, 0x15, 0x4b, 0x3e, 0xdb, 0x21, 0xc3, 0xbc, 0x0b, 0x1f, 0x72, 0xbe, 0x89, 0x24, 0xec, 0xbe, 0xeb, 0xf0, 0x82, 0xbe, 0xab, 0xb6, 0x9f, 0x3e, 0xcf, 0xa5, 0xe1, 0x3e, 0x64, 0xb9, 0xb5, 0xbe, 0x5f, 0xe4, 0x5d, 0xbe, 0xa0, 0xba, 0x31, 0x3f, 0xfb, 0x38, 0xbd, 0x3e, 0xce, 0x88, 0x12, 0xbc, 0x79, 0xfb, 0x9f, 0xbd, 0xff, 0x99, 0x93, 0xbc, 0x1f, 0xa0, 0x20, 0xbe, 0x9e, 0xa4, 0x52, 0x3e, 0x4c, 0x18, 0x29, 0xbe, 0xc5, 0xb6, 0x94, 0x3e, 0x33, 0x2c, 0xc5, 0x3d, 0x38, 0xf9, 0x64, 0xbd, 0xd4, 0xee, 0x22, 0xbe, 0xf0, 0x9e, 0x01, 0xbf, 0x08, 0x5b, 0x80, 0x3e, 0x8a, 0x76, 0x03, 0xbe, 0x0b, 0x81, 0x8e, 0xbe, 0xda, 0xab, 0xb8, 0xbe, 0xb5, 0x8a, 0x8c, 0xbe, 0xcf, 0x1b, 0x1c, 0x3d, 0xa6, 0x28, 0x01, 0xbf, 0xf9, 0x23, 0xca, 0xbd, 0x78, 0xdb, 0xa7, 0x3d, 0x80, 0xa3, 0xc4, 0xbc, 0x58, 0x5e, 0x19, 0x3e, 0xa8, 0x34, 0xf0, 0x3d, 0xc0, 0xcd, 0x62, 0x3d, 0xc2, 0x19, 0x0b, 0xbf, 0xbf, 0x03, 0x24, 0xbe, 0x4a, 0x93, 0x96, 0x3d, 0x45, 0x93, 0xda, 0x3d, 0x5a, 0x3a, 0x6c, 0x3e, 0x16, 0x4a, 0xd2, 0xbe, 0xec, 0xa2, 0xa9, 0x3d, 0x7b, 0x79, 0xf4, 0xbe, 0xe3, 0xa8, 0xa9, 0x3e, 0x87, 0x22, 0xa2, 0x3d, 0x4a, 0x01, 0xf1, 0xbe, 0x45, 0x89, 0x7f, 0xbe, 0x74, 0x14, 0x0e, 0x3f, 0x3e, 0x55, 0xcc, 0x3d, 0x80, 0x0b, 0x65, 0xbe, 0xf0, 0x32, 0x57, 0xbd, 0x07, 0x41, 0xe1, 0x3e, 0xbc, 0xb6, 0x36, 0xbe, 0x94, 0xfd, 0xab, 0x3d, 0xd3, 0x44, 0x3c, 0x3d, 0x60, 0x8e, 0x31, 0x3e, 0x68, 0x5c, 0x58, 0x3e, 0x1f, 0x8d, 0x92, 0x3d, 0x7a, 0x28, 0xe8, 0xbe, 0xd9, 0xd3, 0xe1, 0xbc, 0xa6, 0xeb, 0x79, 0xbe, 0x37, 0x14, 0xa8, 0xbe, 0x56, 0x66, 0xc6, 0x3e, 0x30, 0x47, 0xed, 0xbd, 0xa0, 0x62, 0xa1, 0xbc, 0x80, 0x86, 0x45, 0xbe, 0xb6, 0x0d, 0x5e, 0xbe, 0x6b, 0x66, 0xc2, 0xbe, 0x23, 0xcc, 0x94, 0xbe, 0x48, 0xf3, 0x74, 0xbd, 0xc6, 0x64, 0xd6, 0x3d, 0xa4, 0x41, 0x0e, 0xbf, 0xf3, 0x77, 0x41, 0xbe, 0x1a, 0x45, 0x1f, 0x3f, 0x67, 0xcc, 0xc4, 0x3d, 0x0d, 0xe7, 0xb2, 0xbc, 0x40, 0xdf, 0x95, 0x3e, 0x66, 0x8e, 0xbb, 0x3d, 0x41, 0x77, 0x74, 0x3d, 0x4e, 0xf0, 0x27, 0x3f, 0xe8, 0xec, 0xba, 0xbd, 0xf9, 0xa7, 0x82, 0x3e, 0xda, 0xdc, 0x16, 0x3e, 0x00, 0x6b, 0xc2, 0x3b, 0xd9, 0x35, 0xce, 0xbd, 0x9d, 0xfa, 0xf4, 0xbe, 0x56, 0xa0, 0x93, 0x3d, 0xad, 0x15, 0x35, 0xbe, 0xdf, 0x92, 0xe1, 0xbe, 0xe2, 0x6d, 0x83, 0x3b, 0xa9, 0x6b, 0x8b, 0xbe, 0x5d, 0x17, 0x20, 0x3b, 0xdf, 0x15, 0x63, 0xbe, 0x2e, 0xf4, 0x97, 0xbd, 0x14, 0x9a, 0x32, 0x3e, 0x0c, 0x7f, 0x9e, 0x3e, 0xe7, 0x39, 0xa5, 0x3e, 0xc0, 0x82, 0x25, 0xbd, 0xb0, 0x3b, 0x4e, 0xbd, 0x9a, 0x5b, 0x10, 0xbf, 0xe4, 0x69, 0xc3, 0xbc, 0x4f, 0x3a, 0x37, 0xbc, 0xef, 0x32, 0xa0, 0x3e, 0xfc, 0xcd, 0xe8, 0x3c, 0xb8, 0xe0, 0x8c, 0xbe, 0xdc, 0x7b, 0x93, 0xbe, 0x80, 0x1b, 0xaa, 0xbe, 0xc9, 0x6d, 0x69, 0x3e, 0xc8, 0x48, 0xe7, 0x3e, 0x07, 0x35, 0xb2, 0xbe, 0xa0, 0xb3, 0x41, 0xbe, 0x21, 0xd5, 0xe5, 0x3e, 0x5f, 0x79, 0xe4, 0xbd, 0x54, 0x38, 0x1d, 0xbe, 0xe8, 0x5a, 0x07, 0x3e, 0x3f, 0xfb, 0xa7, 0x3e, 0x54, 0x99, 0x6b, 0xbe, 0x67, 0x97, 0x90, 0xbe, 0x12, 0x5e, 0x80, 0x3e, 0xc0, 0x75, 0x80, 0x3c, 0xa7, 0xb1, 0xb9, 0x3c, 0xd6, 0x01, 0xfc, 0xbd, 0xc6, 0xf9, 0x10, 0xbf, 0xe9, 0x30, 0xb9, 0x3d, 0x98, 0xed, 0x3c, 0xbe, 0x75, 0xf2, 0xc3, 0xbe, 0xde, 0xfa, 0xe4, 0x3e, 0x30, 0x52, 0xbe, 0xbd, 0x3b, 0x3d, 0x15, 0x3e, 0xd0, 0xef, 0xe2, 0xbd, 0xc0, 0xab, 0xd8, 0x3c, 0xc0, 0x4e, 0x88, 0xbd, 0x0b, 0xcf, 0xd8, 0x3d, 0x12, 0xf4, 0x93, 0x3d, 0x82, 0xcb, 0x4e, 0x3d, 0x93, 0x98, 0xd7, 0xbc, 0xdf, 0xf9, 0x5f, 0x3e, 0xcd, 0xce, 0x1b, 0x3e, 0xe6, 0xa8, 0x38, 0xbe, 0xac, 0xa3, 0x6d, 0xbe, 0x22, 0xe9, 0x6b, 0xbc, 0xbf, 0xbb, 0x35, 0xbe, 0x89, 0x61, 0x6c, 0xbd, 0x51, 0x3c, 0x46, 0x3e, 0x37, 0x3b, 0x68, 0x3c, 0x35, 0x7d, 0x21, 0xbe, 0xa3, 0x22, 0xca, 0xbd, 0x9b, 0x4c, 0xf2, 0xbd, 0xd1, 0x78, 0x56, 0x3e, 0x93, 0x33, 0x90, 0x3d, 0x05, 0x32, 0xbd, 0x3b, 0x5a, 0xa3, 0x29, 0x3e, 0xd1, 0xb7, 0x6f, 0x3d, 0xf0, 0x0f, 0xfd, 0xbd, 0x25, 0x7a, 0x12, 0x3e, 0x8f, 0x69, 0x3a, 0x3e, 0x2c, 0x88, 0x6a, 0x3e, 0x94, 0x2b, 0xd7, 0x3d, 0x00, 0xdb, 0xf6, 0xbb, 0xbb, 0xa0, 0xac, 0xbd, 0x46, 0x7f, 0x9b, 0xbd, 0xb0, 0xfb, 0x58, 0xbd, 0xe0, 0xc0, 0xa6, 0xbc, 0x3f, 0x6f, 0xe5, 0xbd, 0x8f, 0x01, 0x34, 0x3e, 0xa0, 0xd3, 0x09, 0xbe, 0xba, 0x11, 0x58, 0x3d, 0x95, 0x4a, 0xbe, 0x3b, 0x92, 0x01, 0x0e, 0x3d, 0x6e, 0xf6, 0x63, 0x3e, 0xbd, 0x4b, 0x80, 0xbe, 0x67, 0xe1, 0x15, 0xbe, 0xf0, 0x1f, 0x18, 0xbe, 0xc7, 0x32, 0x1a, 0xbe, 0x47, 0xd2, 0x31, 0x3e, 0x5c, 0xd6, 0x16, 0x3e, 0xf6, 0x6b, 0x56, 0xbd, 0x60, 0x53, 0xf5, 0x3d, 0xac, 0xa9, 0x16, 0xbe, 0x07, 0x09, 0x14, 0xbe, 0x6f, 0x7b, 0xda, 0x3d, 0x5b, 0xb9, 0x12, 0xbe, 0x92, 0xf9, 0xe9, 0x3d, 0xb4, 0x1c, 0x4b, 0xbe, 0x35, 0xf2, 0x11, 0xbd, 0x78, 0x8b, 0x6f, 0xbe, 0xa4, 0x5b, 0x34, 0xbe, 0x0f, 0xa9, 0x6e, 0xbd, 0x9f, 0xe5, 0x9f, 0x3d, 0x40, 0x99, 0xc8, 0xbc, 0x70, 0xc8, 0xd5, 0xbd, 0x5c, 0x18, 0x75, 0xbe, 0x95, 0x40, 0x5d, 0xbe, 0xd2, 0xdc, 0x14, 0xbe, 0x3a, 0x9b, 0xfd, 0xbd, 0xb1, 0xad, 0x0e, 0xbf, 0x6f, 0xe6, 0x39, 0xbe, 0x3c, 0x4b, 0x11, 0x3e, 0xb9, 0x19, 0xe1, 0x3e, 0x31, 0x5d, 0xcc, 0xbe, 0x4e, 0xb8, 0x65, 0xbe, 0xeb, 0x3c, 0x0f, 0x3e, 0xc7, 0x39, 0x57, 0x3e, 0x27, 0x3f, 0x1b, 0xbe, 0x95, 0xa4, 0x28, 0x3e, 0x2d, 0xf8, 0x81, 0x3e, 0xf4, 0x06, 0x76, 0x3e, 0xbb, 0x1b, 0xfe, 0x3d, 0x2c, 0x78, 0x66, 0x3d, 0x3c, 0x19, 0xbe, 0xbd, 0x58, 0xe6, 0x6d, 0x3d, 0xfa, 0xb3, 0x34, 0xbe, 0x90, 0x98, 0xce, 0xbe, 0x37, 0x20, 0x8f, 0xbe, 0xf7, 0x6c, 0x37, 0xbe, 0xad, 0xf5, 0x31, 0xbc, 0x00, 0x4e, 0x9c, 0xbe, 0xd9, 0x2c, 0x28, 0xbe, 0xb1, 0x90, 0x95, 0x3c, 0x27, 0x7f, 0xac, 0x3e, 0x32, 0xe3, 0x42, 0xbe, 0xa5, 0x0f, 0x08, 0xbe, 0xc4, 0x5f, 0x39, 0x3e, 0xe7, 0x32, 0x8f, 0x3d, 0x1f, 0xc4, 0x20, 0xbd, 0x40, 0xb7, 0xd6, 0x3d, 0x08, 0x02, 0x49, 0xbe, 0xba, 0xe3, 0x11, 0xbf, 0xdd, 0xfd, 0x29, 0xbe, 0xfd, 0xd5, 0xf8, 0x3d, 0x12, 0xd6, 0x05, 0x3e, 0x39, 0xce, 0x5d, 0xbc, 0x5e, 0x80, 0x9f, 0xbd, 0x46, 0x20, 0x96, 0xbe, 0xa8, 0x6b, 0xa4, 0xbe, 0x63, 0xd7, 0x79, 0x3e, 0x12, 0xf2, 0xac, 0x3e, 0x2a, 0x31, 0xac, 0xbe, 0x49, 0xc7, 0x5e, 0xbe, 0x5d, 0x54, 0x1b, 0x3f, 0xb8, 0xab, 0xa7, 0xbd, 0xd0, 0xec, 0xdd, 0x3d, 0xc8, 0xb5, 0xaa, 0x3d, 0x8d, 0x81, 0xf7, 0x3e, 0x17, 0x04, 0x77, 0xbe, 0xb5, 0x11, 0xc9, 0xbd, 0x73, 0x6c, 0xcc, 0x3d, 0x40, 0x86, 0x00, 0x3c, 0xef, 0xf4, 0xd5, 0xbd, 0x85, 0x47, 0x5d, 0xbd, 0xf0, 0x29, 0xd9, 0xbe, 0x0a, 0xba, 0x0f, 0x3e, 0x5d, 0x4c, 0xd4, 0x3d, 0x6c, 0x13, 0xc5, 0xbe, 0x84, 0xd4, 0xae, 0x3e, 0xd0, 0x40, 0x59, 0x3e, 0xff, 0x7f, 0x95, 0xbd, 0xc4, 0x28, 0x41, 0xbe, 0x0f, 0xf2, 0xe4, 0x3e, 0x60, 0x37, 0xc3, 0x3e, 0xec, 0xd1, 0x7b, 0x3e, 0x65, 0x6f, 0x9d, 0xbe, 0x11, 0x4a, 0x71, 0x3d, 0x3d, 0x4c, 0x36, 0x3f, 0x08, 0x6f, 0xa2, 0x3e, 0x06, 0xb8, 0x37, 0xbe, 0xee, 0x4a, 0xe0, 0xbd, 0x38, 0x10, 0x1f, 0x3e, 0xa7, 0x93, 0x99, 0x3d, 0x44, 0xa5, 0x40, 0xbe, 0x21, 0x98, 0x1c, 0x3e, 0x9d, 0x79, 0xab, 0xbe, 0xc5, 0xee, 0x99, 0x3e, 0xed, 0x88, 0x60, 0x3e, 0xe5, 0x42, 0x9b, 0x3e, 0xc3, 0x7d, 0xb8, 0x3d, 0x95, 0x86, 0x2c, 0x3e, 0x15, 0x4f, 0x53, 0x3e, 0xbc, 0x26, 0x94, 0x3d, 0x94, 0x3f, 0xdf, 0x3d, 0xeb, 0xca, 0x29, 0x3f, 0xe2, 0xb4, 0x9d, 0x3d, 0x30, 0xf8, 0xe9, 0xbc, 0x00, 0xb1, 0x3d, 0xbe, 0x89, 0x3e, 0xd0, 0x3e, 0x80, 0x28, 0x1c, 0xbe, 0xc0, 0x93, 0x5d, 0xbd, 0x3d, 0x42, 0xbd, 0xbd, 0xc2, 0xfa, 0x84, 0xbd, 0x3c, 0x1e, 0x6f, 0xbe, 0x28, 0xb2, 0xc7, 0xbd, 0xd9, 0x5e, 0xce, 0x3e, 0x7d, 0x22, 0x3d, 0xbe, 0xf0, 0xf4, 0xa4, 0x3e, 0xbc, 0xb4, 0x62, 0xbe, 0x7f, 0x41, 0x57, 0x3e, 0x28, 0xd5, 0x1a, 0xbc, 0x41, 0xd6, 0x3e, 0x3e, 0xa7, 0x99, 0x06, 0x3f, 0xb5, 0xa5, 0x54, 0xbe, 0x02, 0xf3, 0xf1, 0xbc, 0x04, 0xda, 0x4f, 0x3e, 0xdc, 0x98, 0x9a, 0x3e, 0xca, 0x88, 0xb0, 0xbe, 0x8c, 0x29, 0xc1, 0x3d, 0xbc, 0x61, 0x6b, 0x3e, 0x08, 0xa4, 0xfb, 0xbd, 0x80, 0xf3, 0x83, 0xbe, 0x00, 0x7a, 0x45, 0xbd, 0x59, 0xa2, 0x75, 0x3d, 0xb5, 0x14, 0x70, 0xbe, 0x50, 0x30, 0x2a, 0x3e, 0x72, 0x42, 0x80, 0x3e, 0xc7, 0x54, 0x67, 0x3e, 0x77, 0x83, 0xcc, 0x3e, 0xa3, 0xec, 0xb9, 0x3e, 0x0e, 0x72, 0xa6, 0x3e, 0x8f, 0xe9, 0x73, 0x3e, 0xc1, 0xc2, 0x77, 0xbe, 0x14, 0xe3, 0x01, 0xbe, 0xd4, 0xf8, 0x4d, 0x3e, 0xcf, 0x3a, 0x0b, 0x3e, 0x04, 0x98, 0x78, 0x3e, 0x79, 0xf7, 0xd4, 0x3e, 0xd6, 0x07, 0xc6, 0x3d, 0xc6, 0x4b, 0xbb, 0xbe, 0x0e, 0x3c, 0xcd, 0x3c, 0x8c, 0xde, 0x9c, 0x3e, 0x5d, 0xdd, 0xfb, 0x3d, 0xa7, 0xa5, 0xb1, 0xbe, 0xca, 0x5b, 0xb5, 0xbd, 0x4f, 0x37, 0xb2, 0x3c, 0xe3, 0x70, 0x81, 0xbd, 0xd9, 0x04, 0xb2, 0xbd, 0xc6, 0x8d, 0x65, 0xbd, 0x73, 0x21, 0x00, 0xbf, 0xe7, 0xb8, 0x4f, 0x3e, 0x93, 0xf3, 0x32, 0x3c, 0xc4, 0xf9, 0xa0, 0x3d, 0xa9, 0xf5, 0x36, 0x3e, 0xd5, 0x5c, 0x84, 0x3e, 0x29, 0x54, 0xae, 0x3e, 0xe4, 0xd9, 0x5e, 0x3e, 0x39, 0xe1, 0xe1, 0x3e, 0xae, 0x0e, 0xac, 0x3e, 0x52, 0x73, 0x77, 0x3d, 0x30, 0x4a, 0x87, 0x3e, 0x4b, 0x50, 0xbb, 0xbd, 0x24, 0xf5, 0x05, 0x3f, 0x35, 0x17, 0x48, 0xbe, 0xd0, 0xf1, 0x60, 0x3d, 0xbd, 0x27, 0x5d, 0xbe, 0xa2, 0x74, 0x9d, 0xbd, 0x40, 0x5c, 0xaf, 0x3d, 0x30, 0xf8, 0x4a, 0xbd, 0xa0, 0xce, 0x36, 0x3f, 0x3a, 0xd6, 0xb4, 0x3d, 0x97, 0x8b, 0xdd, 0x3d, 0x19, 0x45, 0x72, 0x3e, 0x5c, 0x5c, 0xec, 0x3d, 0x0d, 0x39, 0x9a, 0x3e, 0x5b, 0x70, 0x8e, 0x3e, 0x95, 0xa2, 0x25, 0x3f, 0xf7, 0xc3, 0x4f, 0xbd, 0xf0, 0x6f, 0xc3, 0x3d, 0x61, 0x33, 0xd2, 0x3e, 0xff, 0xfe, 0x10, 0x3e, 0xa0, 0x80, 0x8c, 0xbe, 0x44, 0xc9, 0x94, 0x3e, 0x00, 0xc9, 0x9f, 0x3c, 0x48, 0xed, 0x20, 0x3e, 0x39, 0xf2, 0xd9, 0xbe, 0x23, 0x11, 0x6c, 0x3e, 0x46, 0x36, 0xec, 0x3e, 0x20, 0x52, 0x3e, 0x3e, 0x88, 0xc4, 0x63, 0xbe, 0xd4, 0x6f, 0x19, 0x3d, 0x46, 0x9d, 0x29, 0x3e, 0x17, 0xf8, 0x0d, 0x3f, 0x3d, 0x60, 0x81, 0x3e, 0x30, 0xbb, 0x86, 0x3e, 0x1f, 0xfa, 0xf1, 0x3e, 0x4f, 0xd6, 0xf2, 0xbe, 0x0c, 0x29, 0x25, 0x3e, 0x71, 0x9f, 0x84, 0x3e, 0x5a, 0x12, 0x3e, 0xbd, 0x99, 0x3f, 0x03, 0xbe, 0x77, 0x4d, 0xbb, 0xbe, 0x28, 0x24, 0x1d, 0x3d, 0x91, 0xfe, 0x14, 0x3e, 0xe7, 0x84, 0xc1, 0x3e, 0xe3, 0x94, 0xcd, 0xbe, 0x39, 0x3b, 0x8b, 0xbe, 0x51, 0x6d, 0xbc, 0x3e, 0xee, 0xda, 0x8a, 0x3e, 0x74, 0x63, 0xca, 0x3d, 0x83, 0x27, 0xa6, 0x3e, 0x86, 0xcb, 0x9e, 0x3e, 0x66, 0x23, 0x64, 0xbe, 0x72, 0xce, 0xa6, 0x3e, 0x5f, 0x5d, 0xed, 0x3d, 0xfb, 0xc0, 0x44, 0x3e, 0x8f, 0x28, 0x56, 0x3e, 0xde, 0xc9, 0xc2, 0xbe, 0xbe, 0x3e, 0x1c, 0xbe, 0x6b, 0x08, 0x3e, 0xbe, 0x2a, 0x07, 0x47, 0x3e, 0xf8, 0xf8, 0x9e, 0xbe, 0x6a, 0xd6, 0xe2, 0xbe, 0xc6, 0x67, 0x09, 0xbe, 0x48, 0x15, 0x92, 0xbe, 0x8d, 0xd4, 0x86, 0x3e, 0x03, 0x48, 0x0a, 0xbf, 0x74, 0x21, 0x94, 0xbd, 0x20, 0x69, 0x1a, 0xbd, 0x93, 0x89, 0xac, 0x3d, 0x62, 0x88, 0x57, 0x3e, 0xd0, 0xa0, 0x30, 0xbd, 0x78, 0xc7, 0x6f, 0x3e, 0x36, 0x9b, 0x9f, 0xbe, 0x6a, 0x92, 0x3a, 0x3d, 0xe4, 0x3b, 0x83, 0xbe, 0xf2, 0xde, 0xd7, 0x3d, 0xcf, 0xbd, 0x82, 0x3e, 0x86, 0xd0, 0xb6, 0x3b, 0xce, 0xb2, 0xa2, 0x3d, 0x5a, 0x08, 0x9b, 0xbe, 0xeb, 0x0d, 0x00, 0x3b, 0x32, 0x5c, 0xae, 0x3e, 0xab, 0xbe, 0xe0, 0xbd, 0x77, 0xdf, 0x74, 0xbd, 0x76, 0x7c, 0xba, 0x3d, 0x84, 0x68, 0xac, 0xbe, 0x8c, 0x11, 0x07, 0xbe, 0x98, 0xfb, 0xe7, 0x3d, 0x20, 0x0f, 0xdf, 0x3e, 0xeb, 0xe8, 0xe7, 0xbd, 0xd3, 0xde, 0xb3, 0xbe, 0x07, 0x34, 0x9f, 0x3d, 0x00, 0x30, 0x66, 0xbc, 0xa6, 0x26, 0x7b, 0x3d, 0x20, 0x6a, 0x7c, 0xbd, 0x5e, 0x17, 0xf8, 0xbe, 0x79, 0x01, 0xc4, 0xbe, 0xa1, 0xb9, 0x0a, 0x3b, 0x58, 0xad, 0x02, 0xbe, 0x18, 0xff, 0xa5, 0x3e, 0xc0, 0xdb, 0x59, 0xbe, 0x53, 0xb5, 0xe6, 0xbc, 0x9e, 0x5e, 0x23, 0x3d, 0xb0, 0x74, 0x59, 0xbe, 0xe0, 0x37, 0x95, 0x3d, 0xb4, 0xb1, 0x66, 0xbe, 0x5c, 0x09, 0x1c, 0xbe, 0x1c, 0x9b, 0x24, 0x3e, 0x4c, 0x71, 0x12, 0x3e, 0x80, 0x69, 0x18, 0x3d, 0x00, 0x30, 0xe8, 0xbd, 0xd0, 0x2d, 0x38, 0x3e, 0x20, 0xf8, 0x13, 0xbe, 0x28, 0x8e, 0x1e, 0xbe, 0x94, 0xa0, 0x39, 0xbe, 0x68, 0x35, 0x79, 0xbe, 0xe0, 0x94, 0xec, 0xbc, 0xe0, 0x44, 0x53, 0x3d, 0x3c, 0x4f, 0x2f, 0x3e, 0x40, 0xa5, 0x17, 0xbe, 0xb0, 0x72, 0x85, 0x3d, 0x88, 0x2e, 0xb5, 0xbd, 0x30, 0xf8, 0x75, 0xbe, 0x90, 0x3a, 0x7c, 0xbd, 0x10, 0xc2, 0x8c, 0x3d, 0xd8, 0xe3, 0xc1, 0xbd, 0xd4, 0xae, 0x0d, 0x3e, 0x48, 0x5d, 0xd4, 0xbd, 0x90, 0x91, 0x63, 0xbe, 0x40, 0xc4, 0xd7, 0x3c, 0x00, 0x44, 0xce, 0xba, 0x00, 0x49, 0xd9, 0xbb, 0x10, 0x01, 0xec, 0xbd, 0x78, 0x88, 0x18, 0x3e, 0x4c, 0x3f, 0x4b, 0xbe, 0xf4, 0x09, 0x39, 0x3e, 0xdc, 0xd4, 0x68, 0xbe, 0xb0, 0x5a, 0x10, 0x3d, 0xec, 0x6a, 0x4f, 0xbe, 0x20, 0x96, 0x64, 0xbe, 0x88, 0xbe, 0xbc, 0xbd, 0x80, 0x7c, 0xd1, 0x3c, 0x50, 0xbd, 0x11, 0xbd, 0x80, 0x1c, 0x06, 0xbe, 0xe8, 0xaa, 0x76, 0x3e, 0xd8, 0xc5, 0xed, 0xbd, 0xac, 0xd9, 0x2b, 0x3e, 0x5c, 0x27, 0x78, 0xbe, 0x28, 0xb9, 0x79, 0x3e, 0x90, 0x9a, 0x3d, 0x3e, 0xc0, 0x73, 0xbd, 0x3d, 0xb0, 0xd5, 0xda, 0xbd, 0x70, 0xc8, 0x5c, 0xbe, 0xb4, 0xb5, 0x27, 0xbe, 0x00, 0x9d, 0x9f, 0x3d, 0xc4, 0xa5, 0x74, 0xbe, 0x00, 0x4d, 0x00, 0xbe, 0x68, 0x5f, 0xb9, 0xbd, 0x00, 0x97, 0x5e, 0x3b, 0xf0, 0x60, 0x3f, 0x3e, 0xc0, 0xb2, 0x86, 0x3d, 0x6c, 0x0a, 0x1f, 0x3e, 0xcc, 0xd8, 0x7d, 0x3e, 0x00, 0xe0, 0x34, 0xba, 0xcc, 0x40, 0x11, 0x3e, 0x80, 0x79, 0x3c, 0xbd, 0xa4, 0x2a, 0x0d, 0x3e, 0x9b, 0x64, 0x5a, 0xbc, 0x2d, 0xe2, 0x95, 0x3e, 0xfe, 0x53, 0x8f, 0x3e, 0x97, 0x99, 0x96, 0xbe, 0x31, 0x83, 0x2d, 0xbe, 0xc9, 0x1c, 0xdf, 0x3e, 0xbd, 0x4c, 0x9e, 0x3d, 0xa2, 0xe7, 0x8e, 0xbe, 0xe6, 0x59, 0x45, 0x3e, 0xee, 0x52, 0xdc, 0x3d, 0x6f, 0xb2, 0xc7, 0x3d, 0x27, 0x8a, 0x72, 0x3d, 0x93, 0xe1, 0x58, 0x3e, 0xb0, 0x6a, 0xdf, 0xbe, 0x83, 0x75, 0xb9, 0x3e, 0xc4, 0x84, 0x89, 0x3d, 0xe1, 0xa5, 0xdf, 0x3d, 0xb0, 0xa4, 0xa1, 0x3e, 0xc3, 0x62, 0x36, 0x3e, 0x71, 0xf3, 0xe8, 0x3e, 0x9d, 0x29, 0xcf, 0xbd, 0x1f, 0x31, 0x17, 0x3e, 0x1c, 0xcc, 0x10, 0x3f, 0x7a, 0x63, 0x0b, 0x3e, 0xbb, 0x92, 0xc2, 0x3e, 0x7f, 0x2b, 0xac, 0xbe, 0x0f, 0x13, 0x07, 0x3f, 0x51, 0x00, 0x29, 0x3e, 0x30, 0x85, 0xf2, 0x3d, 0xe4, 0xb6, 0xb6, 0xbd, 0x10, 0x04, 0x95, 0x3d, 0xa0, 0xe4, 0xd0, 0xbc, 0x78, 0xef, 0x9c, 0x3d, 0x3b, 0xd8, 0x37, 0x3f, 0xb9, 0x5b, 0x2c, 0xbe, 0xa9, 0x17, 0xda, 0xbb, 0xd0, 0xb6, 0x47, 0xbe, 0xee, 0x28, 0x4a, 0x3e, 0x9d, 0xc8, 0x87, 0x3d, 0xa9, 0x6f, 0x9f, 0x3e, 0xc8, 0xdb, 0x8a, 0x3e, 0x98, 0x28, 0xcc, 0xbe, 0xed, 0x64, 0x2e, 0xbd, 0x4a, 0x72, 0x82, 0x3e, 0x7e, 0xfe, 0xbf, 0x3e, 0xc4, 0x8e, 0xc8, 0xbe, 0x63, 0x94, 0xf2, 0x3d, 0x58, 0x1f, 0xa7, 0x3d, 0x34, 0x0a, 0x3b, 0x3e, 0xa1, 0xdb, 0x08, 0x3d, 0x66, 0x8b, 0x2b, 0x3e, 0x98, 0x09, 0x9e, 0x3d, 0x32, 0x4f, 0x85, 0xbd, 0x7c, 0x50, 0x2a, 0xbe, 0xb8, 0xa8, 0x13, 0xbe, 0x1c, 0x83, 0x76, 0x3e, 0xf1, 0x53, 0x4b, 0x3e, 0x34, 0x6b, 0x93, 0x3e, 0x4c, 0x5f, 0x22, 0xbd, 0x0b, 0x5e, 0xd4, 0x3e, 0x08, 0x79, 0x98, 0xbe, 0x50, 0x18, 0x7f, 0x3d, 0x36, 0x00, 0x84, 0xbd, 0x00, 0xa1, 0x11, 0xbe, 0x15, 0xb4, 0x95, 0x3d, 0xe6, 0xe1, 0x84, 0x3e, 0xc9, 0xf2, 0xda, 0x3d, 0xe8, 0xed, 0x9c, 0x3d, 0x73, 0x12, 0x82, 0xbe, 0x08, 0x5d, 0x74, 0x3e, 0xbc, 0xd7, 0x20, 0xbc, 0x67, 0x80, 0x74, 0xbe, 0x7a, 0x51, 0x57, 0x3e, 0xf9, 0xde, 0x85, 0x3e, 0x99, 0xb0, 0x51, 0xbd, 0x35, 0x67, 0x0c, 0xbe, 0x72, 0xc2, 0x52, 0x3e, 0xab, 0xa8, 0x15, 0x3e, 0x00, 0x49, 0x47, 0x3e, 0x78, 0x27, 0x4f, 0x3e, 0xa4, 0x66, 0xb4, 0x3e, 0x87, 0xf9, 0x7e, 0x3d, 0x19, 0x00, 0x07, 0x3f, 0x64, 0xda, 0x32, 0x3e, 0xb9, 0x24, 0x17, 0x3e, 0x1b, 0xf1, 0xb6, 0x3e, 0x9a, 0x0b, 0xd9, 0x3e, 0x78, 0x75, 0xc2, 0x3e, 0xa5, 0x57, 0xc5, 0x3e, 0xe9, 0xf4, 0x7c, 0x3e, 0x9f, 0xce, 0xd2, 0x3e, 0x4a, 0x41, 0xb0, 0x3c, 0xa0, 0x51, 0xb2, 0x3c, 0x7b, 0xa1, 0x32, 0x3e, 0x80, 0xfe, 0x53, 0xbd, 0xe4, 0x95, 0x45, 0xbe, 0xd0, 0x1a, 0xf3, 0x3d, 0xa4, 0x80, 0xa2, 0x3e, 0x34, 0xec, 0xf9, 0x3c, 0x21, 0x56, 0xa5, 0x3e, 0x2b, 0x6c, 0x45, 0x3c, 0xa3, 0x7a, 0x74, 0x3e, 0xdc, 0xc4, 0x5d, 0x3e, 0x66, 0xed, 0x9b, 0x3e, 0xd8, 0x46, 0x09, 0x3f, 0xfc, 0x59, 0x11, 0x3e, 0x9b, 0x17, 0xb7, 0xbd, 0xe2, 0x3f, 0xee, 0x3d, 0xd1, 0x89, 0xbf, 0x3e, 0x80, 0x3d, 0x2b, 0xbe, 0xd8, 0x08, 0x80, 0x3e, 0x00, 0x0a, 0xf4, 0xbc, 0x20, 0x9d, 0x87, 0xbd, 0x27, 0x29, 0xf5, 0xbd, 0xe2, 0xf5, 0x30, 0x3e, 0xd3, 0xe6, 0x28, 0x3e, 0xd0, 0xd0, 0x04, 0xbe, 0x1c, 0x37, 0x10, 0xbe, 0xf0, 0x94, 0xa0, 0x3c, 0x01, 0xc9, 0x53, 0x3e, 0x45, 0x10, 0xab, 0x3e, 0xca, 0x58, 0xb1, 0x3e, 0xf7, 0x6b, 0xf5, 0x3d, 0xa0, 0xf3, 0x07, 0x3f, 0xd6, 0xad, 0xb0, 0xbe, 0x1c, 0xd8, 0x10, 0x3e, 0xf6, 0xe6, 0xa3, 0x3e, 0x5c, 0xe2, 0xb9, 0xbd, 0xeb, 0x2a, 0xe5, 0xbe, 0xf4, 0xee, 0x14, 0xbe, 0x8d, 0x31, 0x80, 0xbe, 0xe0, 0x34, 0x92, 0x3e, 0xb3, 0x72, 0x17, 0xbd, 0x9f, 0xfe, 0xa4, 0xbe, 0xc4, 0xa3, 0x4e, 0xbe, 0x1b, 0xf3, 0xc3, 0x3e, 0x3e, 0xbb, 0x71, 0x3c, 0x48, 0x77, 0x3d, 0xbe, 0x48, 0xdc, 0x66, 0xbb, 0x56, 0x8f, 0xc3, 0x3e, 0xa0, 0xf7, 0x19, 0xbe, 0xc6, 0xe8, 0x46, 0x3e, 0xd0, 0xd5, 0xff, 0x3c, 0xfa, 0x0f, 0x67, 0xbd, 0x58, 0x63, 0x2a, 0x3e, 0xd2, 0xb8, 0x6b, 0x3d, 0xcf, 0xd1, 0xac, 0xbd, 0x7b, 0x6b, 0xff, 0xbe, 0x73, 0x3c, 0x9b, 0x3e, 0x9e, 0x5d, 0xc1, 0xbe, 0x18, 0x7a, 0x15, 0xbf, 0xb9, 0x27, 0xba, 0xbe, 0x4b, 0xa1, 0x75, 0xbe, 0xf7, 0x31, 0xb1, 0x3e, 0x19, 0x31, 0xd7, 0xbe, 0x0e, 0xb4, 0xaf, 0xbd, 0xd0, 0x1b, 0x83, 0x3d, 0x38, 0xa2, 0x45, 0x3e, 0xf8, 0x85, 0x7a, 0x3d, 0xd0, 0x28, 0x50, 0xbd, 0x2c, 0x47, 0x35, 0xbe, 0xa6, 0xe5, 0xa3, 0xbe, 0x65, 0x5b, 0x85, 0xbd, 0x54, 0x45, 0x46, 0xbe, 0xe5, 0xfd, 0xa2, 0xbd, 0x00, 0x70, 0x2d, 0xbd, 0xef, 0x9a, 0x4f, 0xbe, 0x49, 0xbf, 0x4f, 0xbe, 0x3f, 0x6c, 0x21, 0xbf, 0x1c, 0x1e, 0x98, 0x3e, 0x39, 0x4f, 0xd1, 0x3e, 0x6d, 0xeb, 0x23, 0xbe, 0xfd, 0x23, 0xba, 0x3c, 0x41, 0x74, 0x00, 0x3f, 0xee, 0xcc, 0xa7, 0xba, 0x18, 0x81, 0x94, 0xbd, 0xe0, 0x84, 0x43, 0xbe, 0x86, 0x08, 0xed, 0x3e, 0x9c, 0xf1, 0x9c, 0xbe, 0x42, 0x6e, 0x03, 0xbc, 0x2c, 0x00, 0xb4, 0x3e, 0x24, 0xc9, 0x75, 0x3e, 0x97, 0xa5, 0xab, 0x3d, 0x6f, 0xd8, 0x0f, 0xbe, 0xa6, 0x6b, 0x0f, 0xbf, 0x36, 0x97, 0xe4, 0xbc, 0xef, 0xcb, 0x86, 0xbe, 0xb6, 0x2b, 0x02, 0xbf, 0x20, 0x90, 0xfb, 0x3e, 0x08, 0x25, 0x8e, 0xbd, 0xee, 0xf1, 0x2c, 0x3e, 0x75, 0x41, 0x7c, 0x3e, 0x34, 0x37, 0x4f, 0xbe, 0xb8, 0xae, 0x5d, 0x3e, 0x98, 0x29, 0x74, 0xbe, 0x70, 0x35, 0x16, 0xbd, 0x84, 0x54, 0x22, 0xbe, 0x88, 0xc9, 0xe7, 0xbd, 0xc0, 0xa7, 0x79, 0xbc, 0x70, 0x82, 0x76, 0xbd, 0x54, 0xe8, 0x3b, 0xbe, 0x38, 0x06, 0x9b, 0x3d, 0x98, 0x67, 0x68, 0xbe, 0xfc, 0x62, 0x36, 0x3e, 0xa4, 0x86, 0x38, 0xbe, 0x38, 0x00, 0xde, 0x3d, 0xc4, 0x69, 0x7e, 0xbe, 0x18, 0x5d, 0x10, 0x3e, 0xa8, 0x83, 0x91, 0xbd, 0x6c, 0x57, 0x34, 0x3e, 0xbc, 0x1a, 0x33, 0xbe, 0xa0, 0xa9, 0x0d, 0xbe, 0xd0, 0x29, 0x73, 0xbd, 0xec, 0x78, 0x32, 0xbe, 0xe0, 0x79, 0x21, 0x3d, 0x98, 0xde, 0x82, 0xbd, 0x68, 0x5c, 0x6f, 0xbe, 0xd0, 0xc2, 0x73, 0xbd, 0x90, 0x24, 0x5b, 0x3e, 0xc0, 0xac, 0x8e, 0x3c, 0x40, 0x0d, 0xbe, 0x3d, 0x50, 0xcf, 0x48, 0xbd, 0x20, 0xd9, 0xf2, 0xbc, 0x84, 0x23, 0x39, 0x3e, 0x50, 0xe3, 0x31, 0x3e, 0x80, 0x75, 0x32, 0x3c, 0x48, 0x57, 0x8d, 0x3d, 0x58, 0xaa, 0x6f, 0x3e, 0xb0, 0xc1, 0x65, 0xbe, 0xc8, 0x1e, 0xd5, 0xbd, 0xd0, 0x92, 0xee, 0xbd, 0x5c, 0x22, 0x57, 0xbe, 0xd8, 0xb7, 0xae, 0x3d, 0x40, 0x5f, 0x3f, 0x3c, 0xc8, 0x61, 0x56, 0xbe, 0x30, 0x0d, 0xfa, 0xbd, 0xac, 0x4e, 0x40, 0xbe, 0xbc, 0xb1, 0x62, 0x3e, 0x20, 0xaf, 0x99, 0x3d, 0x24, 0xce, 0x7f, 0x3e, 0xfc, 0xc7, 0x6b, 0xbe, 0xe8, 0x68, 0xf9, 0xbd, 0xa0, 0xba, 0xff, 0x3c, 0x50, 0xa9, 0xf3, 0xbd, 0x74, 0xf9, 0x7a, 0x3e, 0x98, 0x91, 0x46, 0x3e, 0x14, 0x35, 0x1e, 0x3e, 0xf0, 0x57, 0x58, 0xbd, 0x18, 0xc8, 0x74, 0x3e, 0x30, 0x06, 0x53, 0xbd, 0x8c, 0x51, 0x1f, 0x3e, 0x54, 0xbd, 0x2b, 0xbe, 0xa0, 0x8f, 0x96, 0xbd, 0x58, 0x6c, 0x7e, 0x3e, 0xf0, 0xd5, 0x81, 0xbd, 0x50, 0xe8, 0xbc, 0x3d, 0xad, 0x24, 0x90, 0xbd, 0xd9, 0x61, 0x8b, 0x3e, 0x9d, 0x39, 0xa6, 0x3e, 0xca, 0xa1, 0xeb, 0x3c, 0xb4, 0xf1, 0x6b, 0xbe, 0x72, 0x6b, 0xb6, 0x3e, 0xac, 0x3e, 0xcd, 0x3d, 0x20, 0x1b, 0x57, 0xbe, 0x0b, 0x3e, 0x19, 0xbe, 0x60, 0x76, 0xc8, 0x3e, 0x0a, 0xe6, 0x77, 0x3d, 0xfe, 0xd2, 0x72, 0xbd, 0x01, 0x58, 0xb0, 0x3e, 0x40, 0x4e, 0x3e, 0xbe, 0x5c, 0x15, 0xf9, 0x3d, 0xf3, 0x95, 0x81, 0xbd, 0x0f, 0x81, 0xb0, 0x3e, 0x14, 0xcf, 0x59, 0x3e, 0x3e, 0xb1, 0x85, 0x3e, 0x34, 0x20, 0xc8, 0x3e, 0x10, 0x3f, 0x3d, 0xbc, 0x62, 0x4d, 0xde, 0x3e, 0x85, 0x69, 0x4c, 0x3e, 0x2d, 0xba, 0x5e, 0x3d, 0x70, 0x8f, 0x3d, 0x3e, 0x60, 0x61, 0xe8, 0xbb, 0xde, 0x0f, 0x8c, 0x3e, 0x37, 0x6e, 0x53, 0x3d, 0x20, 0x80, 0xc7, 0xbc, 0x7f, 0x35, 0x27, 0x3e, 0xc4, 0x4d, 0x7e, 0x3e, 0x38, 0x5b, 0xab, 0x3d, 0xf8, 0x3b, 0x36, 0xbe, 0x7d, 0xa9, 0xbd, 0x3e, 0x84, 0x4b, 0x57, 0x3e, 0xf0, 0x6a, 0xa0, 0x3e, 0x5f, 0x97, 0x5f, 0xbd, 0x7c, 0x9e, 0x29, 0x3c, 0x5f, 0xb3, 0x16, 0xbc, 0x2b, 0x56, 0x21, 0x3c, 0xb7, 0x11, 0x95, 0x3e, 0xe4, 0x93, 0x02, 0xbe, 0x43, 0xfc, 0xc5, 0xbd, 0x92, 0x94, 0xa9, 0x3e, 0x01, 0xc9, 0xc2, 0xbc, 0x73, 0x21, 0xe2, 0xbe, 0x28, 0x20, 0xe6, 0xba, 0x24, 0x8c, 0x70, 0xbe, 0x1c, 0x64, 0x2f, 0xbe, 0x19, 0x1b, 0xc4, 0x3d, 0x3f, 0x39, 0xbc, 0x3e, 0x6d, 0xf6, 0x5d, 0x3e, 0x22, 0xdd, 0x6c, 0x3d, 0x30, 0x71, 0x31, 0xbd, 0xf5, 0xa9, 0xa9, 0x3e, 0xe0, 0xd8, 0x74, 0x3e, 0x17, 0x71, 0x97, 0x3e, 0xaa, 0x48, 0xad, 0x3e, 0x72, 0xa7, 0x4a, 0x3e, 0xd0, 0x91, 0x2e, 0x3e, 0x85, 0x6e, 0x8a, 0x3c, 0x18, 0x08, 0xd8, 0x3d, 0x0b, 0xe9, 0x81, 0x3e, 0x9f, 0x18, 0x33, 0x3e, 0xaf, 0x68, 0x99, 0x3c, 0xa6, 0x37, 0x99, 0xbe, 0x78, 0xcf, 0x9e, 0xbe, 0x0d, 0xec, 0x8e, 0x3e, 0xe9, 0x88, 0xef, 0x3d, 0xa7, 0x4b, 0xe2, 0xbe, 0xb4, 0x4f, 0x51, 0xbe, 0xaa, 0xd4, 0x05, 0x3f, 0x6a, 0x05, 0x3a, 0x3e, 0x52, 0x46, 0xd6, 0x3c, 0xa1, 0xe2, 0xbc, 0x3c, 0xa9, 0x8b, 0x00, 0x3e, 0xe9, 0xe9, 0x61, 0x3c, 0x1e, 0xf8, 0xd8, 0x3e, 0xff, 0x8e, 0x81, 0xbe, 0xd6, 0xc5, 0x1b, 0x3e, 0xf8, 0xf6, 0x0e, 0xbe, 0x5f, 0xf0, 0x78, 0xbe, 0xf8, 0x42, 0xbc, 0xbe, 0xf4, 0x69, 0x26, 0xbe, 0xf1, 0xf9, 0x58, 0x3e, 0x58, 0xee, 0x84, 0xbe, 0x00, 0x3a, 0xe1, 0xbe, 0x20, 0xb8, 0x9a, 0xbe, 0x5f, 0xe5, 0x48, 0xbe, 0xb0, 0xed, 0xce, 0x3e, 0xe5, 0xda, 0x8c, 0xbe, 0x7f, 0xbc, 0x02, 0x3e, 0x24, 0x81, 0x58, 0xbe, 0xcf, 0x23, 0xbe, 0xbd, 0x83, 0x81, 0x87, 0x3d, 0x64, 0xd5, 0x07, 0x3e, 0x04, 0xb6, 0x2f, 0xbe, 0x6a, 0x13, 0xdd, 0xbe, 0x6c, 0xdd, 0x2d, 0x3e, 0x73, 0x2f, 0xab, 0x3c, 0x35, 0xe4, 0x7f, 0x3e, 0x22, 0x11, 0x9b, 0x3e, 0x96, 0x36, 0xc0, 0x3c, 0xc7, 0x0c, 0x01, 0xbe, 0xd0, 0x69, 0x0e, 0xbf, 0x42, 0x69, 0x7f, 0x3d, 0xca, 0x84, 0xb6, 0x3e, 0xfe, 0x91, 0xd0, 0xbe, 0x88, 0x28, 0xd8, 0x3d, 0x43, 0x7c, 0xd1, 0x3e, 0xe6, 0x0f, 0x35, 0x3d, 0x20, 0x96, 0x93, 0x3d, 0xa8, 0xcf, 0x42, 0xbe, 0x41, 0x39, 0xc5, 0x3d, 0x8f, 0xf4, 0xa5, 0xbe, 0xc2, 0x7d, 0x47, 0xbd, 0x91, 0x6c, 0xde, 0xbc, 0xb8, 0xbd, 0x65, 0x3e, 0x7c, 0xbd, 0x39, 0x3d, 0x84, 0xb6, 0xa3, 0xbc, 0xb7, 0x61, 0x67, 0xbe, 0x79, 0x6e, 0x76, 0xbe, 0x68, 0xb5, 0x84, 0xbe, 0x55, 0x1e, 0xc1, 0xbe, 0x9c, 0x31, 0x76, 0x3e, 0x60, 0xc0, 0x9e, 0xbd, 0x67, 0x71, 0x35, 0x3e, 0xb4, 0xf2, 0xe0, 0xbd, 0x81, 0x6b, 0x15, 0x3e, 0x7a, 0x12, 0x1e, 0x3f, 0xc4, 0xfd, 0x76, 0x3e, 0xe4, 0xec, 0x0c, 0xbe, 0xa4, 0x31, 0x25, 0xbe, 0xec, 0x56, 0x18, 0x3f, 0x83, 0x8f, 0x20, 0x3e, 0xaf, 0x7a, 0xd7, 0xbe, 0x98, 0xec, 0x24, 0xbd, 0x8a, 0x2d, 0xad, 0x3e, 0x65, 0x6e, 0x90, 0xbe, 0x27, 0xc0, 0x97, 0xbe, 0x31, 0xce, 0x8e, 0x3d, 0x57, 0x3d, 0xc1, 0xbe, 0x7a, 0x3c, 0x64, 0x3e, 0x71, 0x69, 0x08, 0xbd, 0x4f, 0x75, 0x52, 0x3e, 0x42, 0x85, 0x36, 0x3d, 0xaf, 0x3c, 0xea, 0x3e, 0x29, 0x77, 0x00, 0x3f, 0x61, 0xf2, 0xad, 0x3b, 0x4c, 0x6d, 0x2f, 0x3e, 0xb1, 0x42, 0x04, 0x3f, 0xf3, 0xcf, 0x9f, 0x3e, 0x7a, 0xf7, 0xce, 0x3d, 0x4f, 0xc0, 0xc5, 0x3d, 0x68, 0x47, 0xa5, 0x3e, 0x4a, 0xb2, 0x74, 0x3d, 0x64, 0x8e, 0x5d, 0xbe, 0xdf, 0x15, 0x51, 0x3c, 0x1c, 0x24, 0x0b, 0xbe, 0x68, 0xf5, 0x43, 0xbe, 0x80, 0x22, 0x4f, 0x3d, 0xf3, 0xe5, 0xbd, 0x3e, 0x32, 0x66, 0x45, 0x3e, 0xbb, 0x25, 0x1e, 0x3e, 0x8f, 0x6a, 0x5d, 0xbb, 0xd4, 0xd6, 0x74, 0xbd, 0x3c, 0x30, 0x6e, 0x3c, 0xe5, 0x5b, 0x37, 0xbb, 0x5f, 0x53, 0x1e, 0x3f, 0xcd, 0x23, 0x97, 0xbc, 0xa4, 0x41, 0x22, 0x3c, 0xa5, 0x1c, 0x1a, 0x3e, 0x30, 0xb0, 0x28, 0x3e, 0xb4, 0x0b, 0x15, 0xbf, 0x10, 0xa2, 0x86, 0xbd, 0x00, 0xad, 0xf9, 0xbc, 0x38, 0xa1, 0x81, 0xbd, 0xa4, 0x4b, 0x6d, 0xbe, 0x60, 0x3d, 0x6a, 0x3e, 0xab, 0x44, 0x3e, 0x3e, 0x52, 0x56, 0xac, 0xbd, 0xa8, 0xd7, 0xb0, 0x3d, 0x47, 0x32, 0x75, 0x3e, 0xde, 0xcf, 0x0a, 0xbe, 0xc4, 0x8c, 0xcd, 0x3e, 0x1a, 0x8f, 0x60, 0x3e, 0x9c, 0x48, 0xa0, 0xbd, 0x7f, 0x41, 0xb6, 0x3e, 0xd3, 0x9d, 0xaa, 0xbe, 0xa4, 0x4f, 0x73, 0xbe, 0xbc, 0x9a, 0x8d, 0x3d, 0x2f, 0x1a, 0xc9, 0xbc, 0xda, 0x67, 0x91, 0x3c, 0x9b, 0x03, 0xe9, 0x3e, 0x52, 0xd3, 0xd0, 0xbb, 0x02, 0xf2, 0xc6, 0xbd, 0xd4, 0x22, 0x48, 0xbe, 0x3c, 0x8e, 0xb5, 0x3e, 0xa2, 0x25, 0x4b, 0x3e, 0xd9, 0xa2, 0xfd, 0xbe, 0x39, 0xe2, 0x26, 0x3e, 0xd0, 0xcc, 0x12, 0x3d, 0xf6, 0x6f, 0x08, 0xbd, 0x89, 0x39, 0x80, 0x3d, 0x34, 0xe0, 0xa6, 0x3d, 0xa3, 0x08, 0x68, 0xbe, 0xa3, 0xff, 0xbb, 0x3e, 0x2d, 0x20, 0xed, 0x3d, 0x06, 0x5b, 0x00, 0x3e, 0x06, 0x23, 0x68, 0x3e, 0x43, 0xdb, 0xc5, 0x3e, 0x7e, 0x0f, 0x13, 0x3f, 0xa3, 0x84, 0x9d, 0xbd, 0xaa, 0x69, 0xc6, 0x3d, 0xb0, 0x1a, 0x75, 0x3e, 0xf0, 0x1d, 0xad, 0x3e, 0xcb, 0xac, 0xc7, 0x3e, 0x1d, 0x08, 0xac, 0xbe, 0xfb, 0x45, 0x00, 0x3f, 0x8f, 0x2a, 0xac, 0x3d, 0xb0, 0x50, 0x09, 0xbd, 0x9b, 0x9e, 0x60, 0x3d, 0xca, 0xcf, 0x4c, 0xbe, 0x9c, 0x66, 0x2a, 0x3e, 0x80, 0x93, 0xa4, 0xbc, 0x49, 0x3e, 0xa0, 0x3e, 0xac, 0x87, 0x05, 0xbb, 0xbe, 0x69, 0xa1, 0x3d, 0x8b, 0x4c, 0x10, 0xbe, 0xeb, 0x8e, 0x13, 0xbd, 0x5d, 0xf5, 0x9a, 0x3e, 0x62, 0x59, 0x92, 0x3e, 0xdd, 0xec, 0x0e, 0x3f, 0x7d, 0x08, 0x4e, 0x3d, 0x03, 0xd2, 0x2b, 0xbd, 0x75, 0xc1, 0xa3, 0x3e, 0x75, 0x84, 0x9f, 0x3c, 0xbf, 0x2c, 0x14, 0xbf, 0x37, 0x9c, 0x67, 0x3e, 0x88, 0x30, 0x4d, 0xbe, 0xe4, 0x31, 0x3e, 0x3e, 0x99, 0x08, 0xa2, 0x3c, 0x0b, 0xfc, 0xac, 0x3e, 0x4a, 0x1b, 0x4c, 0x3e, 0xf3, 0x14, 0x1f, 0xbe, 0xb8, 0x31, 0x14, 0xbe, 0x68, 0xa5, 0x4c, 0x3e, 0x62, 0x2e, 0x01, 0x3a, 0x32, 0x17, 0x9d, 0x3e, 0x3b, 0xae, 0x03, 0x3c, 0x51, 0x7a, 0xbd, 0x3e, 0x2a, 0x92, 0x0e, 0x3f, 0xdb, 0x93, 0x9e, 0xbe, 0x24, 0xc2, 0x01, 0x3e, 0xda, 0x43, 0xc9, 0xbd, 0x92, 0x89, 0x95, 0x3e, 0x17, 0x8b, 0x80, 0xbc, 0xe8, 0x8b, 0x64, 0xbe, 0xdc, 0xdf, 0x6f, 0x3e, 0x9f, 0x54, 0xbb, 0xbb, 0x6d, 0x48, 0x0b, 0x3e, 0x76, 0x14, 0xda, 0x3d, 0x22, 0x59, 0x7f, 0xbe, 0x37, 0xc6, 0x2a, 0xbd, 0x49, 0x27, 0x13, 0xba, 0x96, 0x09, 0x3c, 0xbe, 0xa0, 0x02, 0xb6, 0x3b, 0xc3, 0x8c, 0xec, 0x3d, 0xb5, 0xf0, 0xaa, 0x3d, 0xab, 0xe3, 0x55, 0x3e, 0x91, 0x73, 0x17, 0x3e, 0xca, 0x9d, 0x3f, 0xbe, 0x72, 0x6e, 0x56, 0x3b, 0xcc, 0x11, 0xdd, 0x3d, 0xe1, 0x91, 0x08, 0xbe, 0x00, 0x9c, 0x27, 0x3a, 0xd9, 0xa4, 0x82, 0xbe, 0xef, 0x1e, 0xd0, 0xbd, 0x11, 0x06, 0xd5, 0xbd, 0x5f, 0x1c, 0x2a, 0x3d, 0x3f, 0x95, 0x00, 0xbe, 0xe4, 0x73, 0x40, 0x3e, 0x67, 0xd6, 0xcd, 0x3d, 0x99, 0xb8, 0xd6, 0x3d, 0xa8, 0x05, 0xd0, 0x3d, 0x85, 0x47, 0x86, 0xbe, 0xa5, 0x1e, 0x58, 0x3e, 0x38, 0xe5, 0x53, 0x3e, 0x38, 0xc4, 0x0e, 0x3e, 0xb0, 0x09, 0x02, 0x3e, 0xe1, 0xa7, 0x13, 0xbe, 0x88, 0x28, 0x80, 0xbd, 0x61, 0xb8, 0x5c, 0xbe, 0x12, 0xbf, 0x1b, 0x3e, 0x30, 0xb3, 0x27, 0xbe, 0x9c, 0x38, 0x08, 0x3e, 0xca, 0x82, 0x0e, 0x3d, 0xc5, 0x7f, 0x01, 0x3d, 0xfe, 0x8f, 0x30, 0x3e, 0xd0, 0xbe, 0x55, 0xbe, 0xc8, 0xef, 0xad, 0x3d, 0x96, 0x8e, 0x4b, 0xbe, 0x2c, 0x41, 0x26, 0x3e, 0xd8, 0xe2, 0xb6, 0x3d, 0x38, 0x1c, 0x7b, 0xbe, 0x5a, 0x97, 0x12, 0xbe, 0xdd, 0xdb, 0xfd, 0xbc, 0xa7, 0xf5, 0x86, 0xbe, 0x4c, 0x8d, 0x6b, 0xbd, 0x88, 0x5a, 0x96, 0x3d, 0xc9, 0x38, 0xa9, 0x3d, 0x58, 0xc9, 0x1e, 0xbe, 0x08, 0x5f, 0x30, 0x3e, 0xee, 0x1c, 0x62, 0x3e, 0x3b, 0x44, 0x0d, 0x3c, 0x8d, 0x67, 0x71, 0xbe, 0x9a, 0xd5, 0x8d, 0xbd, 0x6c, 0x83, 0x6d, 0x3e, 0x9e, 0x11, 0x2e, 0xbe, 0x71, 0x24, 0x4a, 0xbe, 0xdf, 0x64, 0x0a, 0xbd, 0x96, 0x94, 0xdc, 0x3e, 0x4c, 0x90, 0xb2, 0x3d, 0xd5, 0x2a, 0x83, 0xbe, 0x6e, 0xee, 0xc1, 0xbe, 0xef, 0xb8, 0x3d, 0x3e, 0x5d, 0x2f, 0x09, 0x3d, 0x3f, 0x07, 0x57, 0xbe, 0x14, 0x6d, 0x1d, 0xbe, 0xdc, 0x8a, 0x7d, 0x3e, 0xf4, 0x94, 0xce, 0xbd, 0xb2, 0xb2, 0x86, 0xbe, 0x2f, 0x16, 0x73, 0x3e, 0x24, 0xf9, 0xf4, 0xbe, 0x60, 0xc2, 0x80, 0x3e, 0x0e, 0x2b, 0x61, 0xbe, 0xe8, 0xdd, 0x41, 0x3e, 0x3e, 0x05, 0x9e, 0x3d, 0xdd, 0x8e, 0x5b, 0x3e, 0xe7, 0x3b, 0x7e, 0x3e, 0x79, 0x35, 0x56, 0x3e, 0xe2, 0xb6, 0xe7, 0x3e, 0xe1, 0x58, 0xf0, 0x3e, 0x63, 0x85, 0x55, 0x3e, 0x35, 0x55, 0x43, 0x3e, 0x26, 0xd9, 0xd7, 0x3d, 0x05, 0x4a, 0x05, 0x3f, 0x3c, 0x0e, 0x8c, 0x3b, 0x10, 0x91, 0x1f, 0xbd, 0xc8, 0xaa, 0x32, 0xbd, 0xb5, 0x6e, 0x1a, 0x3e, 0xa0, 0xed, 0x00, 0x3e, 0x58, 0xc6, 0xb1, 0xbd, 0xd9, 0x5e, 0x10, 0x3f, 0xf0, 0x27, 0x92, 0x3c, 0x84, 0x63, 0xa2, 0x3e, 0x9f, 0xd0, 0x6e, 0xbd, 0xa0, 0xda, 0x7d, 0xbe, 0x12, 0x97, 0x5f, 0xbc, 0x87, 0xe8, 0x04, 0xbd, 0x89, 0xc2, 0x25, 0x3f, 0xef, 0xf8, 0xc4, 0xbe, 0xb5, 0x5b, 0x94, 0xbe, 0xc5, 0xea, 0x00, 0x3e, 0x32, 0x1a, 0x96, 0x3e, 0x31, 0xf2, 0xa7, 0xbe, 0x57, 0xf1, 0xe2, 0xbd, 0x20, 0x3f, 0xd0, 0x3c, 0x70, 0x17, 0xc8, 0xbd, 0xda, 0x44, 0x80, 0xbe, 0x9b, 0x1b, 0x05, 0x3e, 0x68, 0xb4, 0xb9, 0x3e, 0xa3, 0x2c, 0xae, 0x3d, 0x90, 0x12, 0x28, 0xbd, 0x11, 0x2b, 0x72, 0x3e, 0xeb, 0xf2, 0x92, 0x3e, 0x2e, 0xc1, 0x62, 0x3e, 0x2e, 0x04, 0x92, 0x3e, 0x08, 0x29, 0xb4, 0x3e, 0x3a, 0x0e, 0x12, 0x3f, 0x7e, 0x5c, 0xa3, 0xbe, 0xd8, 0xa2, 0xcc, 0x3d, 0x22, 0x24, 0x4c, 0xbe, 0xe9, 0xaf, 0x1d, 0x3e, 0x88, 0x11, 0x1d, 0xbe, 0x00, 0x70, 0x3e, 0x3c, 0x4c, 0x1a, 0x39, 0x3e, 0xcc, 0xa4, 0x3a, 0xbe, 0x40, 0x90, 0x93, 0x3d, 0xa0, 0xd6, 0x50, 0x3d, 0xd0, 0xe8, 0x7c, 0xbe, 0x90, 0xa5, 0x87, 0xbd, 0xdc, 0xfa, 0x16, 0xbe, 0xfc, 0xa7, 0x3b, 0xbe, 0x00, 0x03, 0x52, 0xbe, 0x50, 0xee, 0x88, 0xbd, 0x0c, 0x98, 0x74, 0xbe, 0x78, 0x79, 0xda, 0xbd, 0x10, 0x38, 0x2c, 0x3e, 0x00, 0xa4, 0xa1, 0x3d, 0x20, 0x03, 0xad, 0xbc, 0xc0, 0x32, 0x6f, 0x3c, 0x40, 0x98, 0xc9, 0xbd, 0xd8, 0x74, 0x94, 0x3d, 0x5c, 0xca, 0x0e, 0xbe, 0xf0, 0xaf, 0x2d, 0xbe, 0x40, 0x81, 0x26, 0x3e, 0xd0, 0x83, 0x64, 0xbd, 0xc0, 0x4b, 0x91, 0x3c, 0x30, 0x3d, 0x98, 0xbd, 0x10, 0x20, 0x18, 0x3d, 0xd0, 0xf6, 0x62, 0xbe, 0xf0, 0x50, 0x2a, 0x3e, 0xf4, 0x55, 0x0e, 0xbe, 0x58, 0x06, 0x6d, 0x3e, 0x08, 0xa5, 0x70, 0xbe, 0x7c, 0xfb, 0x30, 0x3e, 0x78, 0x13, 0xaa, 0x3d, 0x10, 0xa5, 0x07, 0xbd, 0xdc, 0x69, 0x5d, 0x3e, 0x78, 0xd1, 0x1c, 0x3e, 0xc0, 0xd2, 0x08, 0x3d, 0x20, 0x74, 0xb0, 0xbc, 0x50, 0x9c, 0x9d, 0xbd, 0x80, 0x89, 0x8c, 0x3c, 0x30, 0x4a, 0x56, 0x3d, 0x80, 0xf6, 0x43, 0xbe, 0xb0, 0xd2, 0x4e, 0x3e, 0x2c, 0x0a, 0x49, 0x3e, 0x80, 0x08, 0x0f, 0xbc, 0xe8, 0x7a, 0x46, 0xbe, 0xdc, 0xb1, 0x6b, 0xbe, 0x68, 0xe5, 0x09, 0x3e, 0xf8, 0x78, 0xfb, 0xbd, 0x98, 0x02, 0x05, 0x3e, 0x18, 0xd5, 0x7f, 0xbe, 0xdc, 0x6a, 0x5c, 0x3e, 0x00, 0x97, 0x68, 0x3c, 0x20, 0x52, 0xc2, 0xbd, 0xdc, 0xc6, 0x5b, 0xbe, 0xc8, 0x56, 0x07, 0xbe, 0xc0, 0x28, 0x79, 0xbd, 0xb0, 0x1c, 0xad, 0xbd, 0x20, 0x33, 0xfb, 0xbd, 0xc0, 0xea, 0x5c, 0xbc, 0x68, 0xe7, 0x12, 0x3e, 0xe0, 0x56, 0xa4, 0x3c, 0x24, 0x44, 0x26, 0xbe, 0xe6, 0xf5, 0x07, 0x3e, 0xd6, 0xdf, 0x6c, 0xbe, 0xe5, 0xd0, 0x1c, 0x3e, 0x06, 0x0d, 0x61, 0x3e, 0xf5, 0x04, 0x1b, 0xbe, 0xb6, 0xf7, 0x03, 0x3e, 0xdb, 0xd1, 0x24, 0x3d, 0x27, 0x29, 0x8c, 0xbd, 0xb8, 0x03, 0x8a, 0xbe, 0xc2, 0xa7, 0x65, 0x3d, 0x87, 0xfc, 0xf7, 0xbd, 0x27, 0xaf, 0x83, 0xbe, 0xe5, 0xd7, 0x2e, 0x3e, 0x38, 0x7f, 0x29, 0x3e, 0xb6, 0xa8, 0x91, 0xbb, 0x38, 0xaa, 0x3e, 0xbe, 0x5e, 0xba, 0x5d, 0xbd, 0x5e, 0x8f, 0x04, 0x3e, 0x43, 0x2d, 0x04, 0x3d, 0xb6, 0xbe, 0x6f, 0x3c, 0x55, 0x42, 0x3c, 0xbe, 0x8d, 0x98, 0xa2, 0x3d, 0x65, 0xb1, 0x41, 0xbe, 0xf4, 0x12, 0x9c, 0xbd, 0xd8, 0x75, 0x15, 0x3e, 0xaa, 0x87, 0x2d, 0xbe, 0xaa, 0x03, 0x15, 0xbe, 0x0e, 0x3f, 0xe7, 0x3d, 0x00, 0x7a, 0x47, 0xbb, 0x91, 0xed, 0xa3, 0x3d, 0x60, 0x93, 0xb1, 0xbd, 0x30, 0x75, 0x57, 0xbd, 0x4c, 0xab, 0x57, 0x3e, 0x9c, 0x2a, 0xb1, 0x3d, 0x90, 0xae, 0xec, 0x3d, 0xe3, 0xeb, 0xa4, 0x3d, 0xd7, 0x47, 0x87, 0x3c, 0xec, 0x3b, 0x46, 0x3e, 0xb7, 0x65, 0x57, 0xbe, 0x28, 0x58, 0x67, 0xbe, 0xa0, 0x4c, 0xc1, 0xbd, 0x7a, 0x4e, 0x33, 0x3e, 0xc9, 0xca, 0x61, 0xbd, 0x12, 0x6a, 0x42, 0xbe, 0xbe, 0xb6, 0xf1, 0xbd, 0xe1, 0xe6, 0x18, 0x3e, 0x2a, 0x87, 0x11, 0xbe, 0xb0, 0x55, 0x64, 0xbe, 0x14, 0x05, 0x6c, 0xbe, 0xe4, 0x13, 0xcc, 0xbd, 0x9c, 0x3c, 0xdb, 0x3a, 0x7d, 0xae, 0x60, 0xbd, 0xd6, 0x41, 0x37, 0x3d, 0xb0, 0x51, 0xb5, 0x3d, 0x94, 0xa1, 0xf3, 0xbd, 0xa9, 0x5e, 0xa0, 0x3d, 0xbd, 0x9a, 0x92, 0x3d, 0x62, 0x25, 0x1c, 0x3e, 0x1d, 0x85, 0x20, 0x3d, 0x50, 0x7b, 0x79, 0xbc, 0x51, 0xf8, 0x79, 0xbe, 0x00, 0xad, 0x32, 0x3c, 0xb2, 0x2c, 0xc3, 0x3d, 0xb8, 0x6f, 0x27, 0xbe, 0xd1, 0xa6, 0x72, 0xbe, 0xa4, 0x29, 0xb3, 0xbe, 0x5c, 0x91, 0x81, 0x3a, 0xe4, 0x5a, 0x1f, 0x3e, 0x57, 0x51, 0xd7, 0x3d, 0x5e, 0x1f, 0x02, 0xbf, 0xb1, 0xd0, 0x76, 0xbe, 0xf3, 0x4d, 0x0b, 0x3f, 0x4a, 0x4c, 0xce, 0x3e, 0x3e, 0x40, 0x8d, 0xbe, 0x90, 0x3e, 0xcb, 0x3c, 0x8a, 0x9d, 0xca, 0x3e, 0x70, 0xa9, 0x33, 0xbd, 0x6a, 0xa4, 0x2a, 0x3f, 0x5c, 0xe9, 0xee, 0x3d, 0x97, 0xa2, 0x70, 0x3d, 0x6b, 0x3a, 0x1c, 0x3c, 0x26, 0xde, 0xb2, 0x3d, 0x33, 0x87, 0xaa, 0xbe, 0x96, 0x04, 0x30, 0xbe, 0x9f, 0xe2, 0x75, 0x3d, 0xea, 0xdf, 0x30, 0xbe, 0xd9, 0x30, 0x20, 0xbf, 0x9c, 0x77, 0xb1, 0xbd, 0x6a, 0x54, 0xb8, 0xbe, 0xa6, 0xc7, 0x55, 0x3e, 0x96, 0x9e, 0xe7, 0xbe, 0xca, 0x7d, 0x2c, 0x3e, 0x10, 0xc9, 0x53, 0xbd, 0xaa, 0x20, 0xf6, 0x3c, 0x41, 0xcd, 0x5b, 0x3e, 0xe0, 0x51, 0x62, 0x3d, 0x90, 0x04, 0xf9, 0xbd, 0x39, 0x9c, 0xd5, 0xbe, 0xb8, 0x95, 0x55, 0x3d, 0x74, 0x7e, 0x3c, 0xbe, 0xda, 0x92, 0xa6, 0x3e, 0x35, 0x3b, 0x8e, 0x3e, 0x8b, 0x6e, 0xce, 0xbe, 0x77, 0x8a, 0xa8, 0xbd, 0x4c, 0xb4, 0x11, 0xbf, 0x0a, 0x1e, 0xec, 0x3e, 0x23, 0x66, 0x37, 0x3d, 0x9f, 0x35, 0xc2, 0xbe, 0xe3, 0x9b, 0x96, 0xbe, 0xe2, 0x0d, 0x03, 0x3f, 0xe7, 0xd6, 0xfe, 0x3d, 0xa0, 0x81, 0xe3, 0x3d, 0xc8, 0x7d, 0x69, 0x3e, 0xfb, 0xd3, 0xe8, 0x3d, 0x85, 0xaa, 0x95, 0xbe, 0xb4, 0xac, 0x15, 0x3d, 0x92, 0x5e, 0xbd, 0x3d, 0xc8, 0x58, 0xfd, 0x3d, 0x2a, 0xfe, 0xfe, 0x3c, 0x2b, 0xc8, 0x73, 0x3e, 0x0b, 0x81, 0x9b, 0xbe, 0x35, 0xc7, 0x8a, 0xbe, 0xab, 0x25, 0x57, 0xbc, 0xb0, 0xa8, 0x00, 0xbf, 0x3d, 0x1e, 0x82, 0x3e, 0x30, 0xe1, 0x44, 0x3d, 0x8c, 0xd8, 0x3e, 0x3e, 0x28, 0x5a, 0xf0, 0xbb, 0x40, 0x7e, 0x39, 0xbe, 0x5c, 0xfa, 0x6c, 0xbe, 0x19, 0xde, 0x2d, 0x3e, 0x50, 0xaf, 0xcf, 0x3d, 0x58, 0x51, 0xa6, 0xbd, 0x03, 0x1e, 0x27, 0x3e, 0x0a, 0x28, 0x24, 0xbd, 0xd0, 0x35, 0x71, 0xbd, 0x19, 0xdd, 0x2e, 0x3c, 0xc1, 0x7e, 0x19, 0xbe, 0xc4, 0xe7, 0x06, 0x3e, 0x62, 0x9c, 0x63, 0xbe, 0xa3, 0x57, 0x48, 0xbd, 0x28, 0x3a, 0xe9, 0xbd, 0xf7, 0xcc, 0xf7, 0x3c, 0x78, 0xcf, 0x34, 0xbe, 0x10, 0xaf, 0xd5, 0x3d, 0x00, 0x0f, 0x2f, 0xbe, 0x48, 0xcd, 0x8a, 0x3d, 0x78, 0xdb, 0x1e, 0xbe, 0x4d, 0x2a, 0x4b, 0xbe, 0x55, 0xe0, 0x5f, 0x3d, 0xbe, 0x1a, 0x81, 0xbe, 0x2d, 0xac, 0x27, 0x3e, 0x2c, 0x0c, 0x19, 0x3d, 0xf8, 0x84, 0x28, 0xbd, 0xf8, 0x11, 0xce, 0xbd, 0xd0, 0x8d, 0x12, 0xbd, 0xb0, 0x1b, 0xa1, 0x3d, 0x80, 0x0b, 0xa1, 0x3c, 0xf7, 0x33, 0x90, 0xbd, 0x20, 0x0e, 0x06, 0x3d, 0x00, 0xcb, 0x07, 0x3b, 0xd4, 0xda, 0x21, 0x3e, 0xf4, 0x50, 0x5f, 0xbe, 0xe0, 0xa0, 0x18, 0x3e, 0xd7, 0xe9, 0x06, 0xbe, 0xb7, 0x5b, 0xff, 0x3c, 0xf9, 0x24, 0x04, 0x3d, 0x9d, 0x4e, 0xf9, 0xbc, 0xfa, 0x64, 0x6f, 0x3e, 0xac, 0xf2, 0x77, 0xbe, 0x00, 0x54, 0x39, 0x3c, 0xca, 0x7f, 0x82, 0xbe, 0xb8, 0x5e, 0x63, 0x3e, 0xb2, 0x3d, 0xf8, 0x3d, 0x87, 0x0b, 0x3c, 0x3e, 0x68, 0x26, 0x87, 0xbd, 0xc8, 0x1f, 0x67, 0x3e, 0x9c, 0x73, 0x1b, 0x3e, 0x2d, 0xf3, 0xc6, 0xbd, 0x3c, 0x07, 0x16, 0xbe, 0x70, 0x26, 0x62, 0x3d, 0x80, 0xc4, 0xa5, 0x3c, 0x02, 0xf0, 0x53, 0xbe, 0xd9, 0xe3, 0xea, 0xbc, 0x04, 0x77, 0x55, 0xbe, 0xc2, 0xc0, 0x65, 0xbd, 0xb5, 0x0b, 0x48, 0xbd, 0xb3, 0x2a, 0x9e, 0xbd, 0x83, 0xe6, 0x7b, 0xbd, 0x50, 0xde, 0x2a, 0x3d, 0xaa, 0xd5, 0x84, 0xbe, 0xfe, 0x60, 0xe7, 0xbd, 0xde, 0xa9, 0x99, 0xbe, 0x6c, 0x65, 0x08, 0xbf, 0xe6, 0x5d, 0xbb, 0xbe, 0x85, 0x36, 0x89, 0x3e, 0xdc, 0x4a, 0xc3, 0x3d, 0x2f, 0x8d, 0xb8, 0xbe, 0xb6, 0x6e, 0x0b, 0xbd, 0xd4, 0x7a, 0x10, 0x3f, 0x7d, 0x7b, 0x4f, 0x3e, 0xa2, 0x61, 0x80, 0xbe, 0x36, 0x66, 0x58, 0x3e, 0x74, 0x8d, 0x94, 0x3e, 0x11, 0x86, 0xa6, 0xbc, 0x84, 0xae, 0x01, 0x3f, 0x38, 0x06, 0x28, 0x3e, 0x84, 0x86, 0x53, 0xbd, 0x6f, 0x45, 0x77, 0x3e, 0xaf, 0xe1, 0xfe, 0xbd, 0x45, 0x0d, 0xfd, 0xbc, 0x5c, 0xbc, 0x0c, 0xbe, 0xb6, 0x1f, 0xa4, 0x3e, 0xb5, 0xf7, 0x70, 0xbe, 0x95, 0x9b, 0xf0, 0xbe, 0xc0, 0x82, 0xb2, 0xbe, 0xc1, 0x14, 0xc9, 0xbe, 0x08, 0x81, 0xba, 0x3e, 0x32, 0xf9, 0x03, 0xbf, 0x72, 0xcb, 0x80, 0x3d, 0x60, 0x70, 0xb4, 0x3d, 0xe1, 0xc6, 0xa3, 0x3e, 0x9f, 0x45, 0x60, 0x3e, 0xf8, 0x2e, 0x9c, 0x3d, 0x78, 0x92, 0x59, 0x3e, 0x7f, 0x4d, 0x16, 0xbf, 0x2a, 0xba, 0x51, 0x3e, 0x8f, 0x3e, 0x71, 0x3d, 0x26, 0x02, 0x12, 0xbe, 0x55, 0xa6, 0xad, 0x3d, 0x96, 0x75, 0x27, 0x3d, 0xce, 0x88, 0x93, 0xbe, 0x1d, 0x32, 0x95, 0xbe, 0xc2, 0xbf, 0xea, 0x3d, 0x52, 0xb8, 0x75, 0x3e, 0xe7, 0x2f, 0x34, 0xbe, 0xc5, 0x87, 0xd6, 0xbd, 0xc6, 0x2b, 0x41, 0x3e, 0x70, 0xda, 0x9e, 0xbe, 0x98, 0xd4, 0xc8, 0xbd, 0xd0, 0x39, 0x5c, 0x3e, 0x12, 0x9f, 0xf0, 0x3e, 0xa0, 0x9e, 0x89, 0xbd, 0x99, 0x4d, 0x8b, 0xbe, 0x2d, 0x4d, 0x9f, 0x3e, 0x10, 0x9c, 0xa7, 0xbd, 0x76, 0x32, 0xa8, 0xbc, 0xa3, 0x62, 0xd4, 0xbd, 0xdc, 0x48, 0x0f, 0xbf, 0x9f, 0x62, 0x96, 0xbd, 0xeb, 0xc2, 0x9c, 0xbd, 0xba, 0x91, 0x5a, 0xbe, 0x6c, 0xbb, 0x05, 0x3f, 0xd0, 0xe2, 0x16, 0x3e, 0xdf, 0xb7, 0x88, 0x3e, 0xc3, 0x12, 0x84, 0x3e, 0xa4, 0xfc, 0x59, 0xbe, 0x68, 0x73, 0x2f, 0xbe, 0x00, 0x08, 0xbc, 0xbc, 0x20, 0xc0, 0xf4, 0x3c, 0x50, 0xad, 0x20, 0x3d, 0x74, 0x1c, 0x2e, 0x3e, 0xe0, 0xb0, 0x8c, 0xbc, 0xf8, 0x7e, 0xee, 0x3d, 0x7c, 0xf0, 0x5d, 0xbe, 0xa0, 0xd1, 0xfd, 0x3c, 0xe0, 0x29, 0xb4, 0x3c, 0x00, 0x00, 0xfc, 0x36, 0x50, 0x19, 0xef, 0x3d, 0x80, 0x4a, 0x03, 0xbd, 0xf0, 0x29, 0xaf, 0xbd, 0x20, 0xe2, 0x51, 0x3d, 0x00, 0x34, 0x79, 0xbe, 0x30, 0x96, 0x47, 0x3e, 0x38, 0x19, 0xd5, 0x3d, 0x3c, 0xd8, 0x62, 0x3e, 0xe4, 0xad, 0x00, 0xbe, 0x90, 0xec, 0xd7, 0x3d, 0x80, 0xeb, 0x65, 0x3d, 0x68, 0xf7, 0x09, 0x3e, 0xa4, 0x48, 0x7f, 0xbe, 0x70, 0xaf, 0x54, 0x3e, 0x50, 0x7b, 0x70, 0x3d, 0x00, 0xc7, 0x70, 0xbd, 0xc0, 0xa5, 0x77, 0x3d, 0x68, 0x22, 0xbc, 0x3d, 0xa0, 0x14, 0x3d, 0xbd, 0xd4, 0x76, 0x4f, 0x3e, 0x48, 0x99, 0xab, 0xbd, 0x90, 0xae, 0x83, 0xbd, 0xa0, 0xfe, 0xca, 0xbd, 0xac, 0x3c, 0x61, 0x3e, 0x80, 0x0a, 0x07, 0xbe, 0x4c, 0x13, 0x4e, 0xbe, 0xe0, 0x7f, 0x70, 0xbd, 0x0c, 0xb3, 0x11, 0xbe, 0xc4, 0x4a, 0x70, 0x3e, 0xa0, 0x7d, 0xa7, 0xbd, 0x28, 0x90, 0x9c, 0x3d, 0x00, 0x25, 0xac, 0xbc, 0x40, 0x3e, 0xcd, 0xbd, 0x90, 0xa0, 0x31, 0x3e, 0x9c, 0xc2, 0x3f, 0x3e, 0x10, 0xa7, 0x20, 0xbe, 0x00, 0x50, 0x9c, 0x3b, 0x18, 0x58, 0x5a, 0x3e, 0xe0, 0x83, 0xba, 0xbd, 0xe8, 0x29, 0x07, 0xbe, 0x58, 0xa6, 0x21, 0xbe, 0xa8, 0xd1, 0xd2, 0x3d, 0x30, 0xb2, 0xe9, 0xbd, 0x40, 0x44, 0xce, 0xbc, 0x80, 0xfa, 0x7b, 0xbc, 0x3c, 0xc6, 0x62, 0x3e, 0xd0, 0xd1, 0x16, 0xbd, 0x00, 0x9d, 0x01, 0x3b, 0x80, 0xc4, 0xae, 0xbc, 0xa0, 0xd1, 0x3b, 0x3d, 0x30, 0x73, 0x12, 0x3e, 0x00, 0xb5, 0xeb, 0xbd, 0x3c, 0x2c, 0x4c, 0x3e, 0x86, 0x9a, 0x8b, 0x3e, 0x63, 0x11, 0x53, 0x3e, 0xf3, 0x30, 0xc5, 0xbe, 0xa8, 0xe7, 0x9d, 0xbe, 0xa1, 0xad, 0x94, 0x3e, 0xa2, 0x59, 0xd4, 0x3e, 0xdb, 0x68, 0x15, 0xbe, 0x26, 0xbb, 0xa5, 0x3d, 0x24, 0xed, 0x71, 0x3e, 0x41, 0x01, 0xf3, 0x3d, 0xf1, 0x45, 0xc5, 0x3d, 0xb7, 0x12, 0x61, 0x3e, 0xcd, 0xa1, 0x73, 0xbe, 0x1e, 0x1d, 0xb2, 0x3e, 0x35, 0x05, 0x8f, 0xbe, 0x06, 0xed, 0x00, 0x3e, 0x8b, 0x09, 0x30, 0x3e, 0xc3, 0xeb, 0xd7, 0x3e, 0x5a, 0xe9, 0xa0, 0x3e, 0x28, 0x92, 0xca, 0x3d, 0x00, 0xc6, 0x91, 0x3e, 0xf1, 0x72, 0x67, 0x3e, 0x1a, 0x8f, 0xa5, 0x3e, 0x64, 0xa3, 0x63, 0x3d, 0x1c, 0x29, 0xe1, 0x3d, 0x35, 0x9f, 0xd4, 0x3d, 0x0e, 0xaf, 0x90, 0xbd, 0x78, 0xdf, 0x37, 0x3e, 0x41, 0xa7, 0x14, 0xbe, 0xed, 0x57, 0x23, 0xbe, 0xe4, 0x77, 0x37, 0xbe, 0x00, 0x87, 0x29, 0x3c, 0x18, 0x51, 0xc6, 0x3e, 0xaa, 0x1d, 0x22, 0x3e, 0xd8, 0xe8, 0x41, 0x3e, 0xfa, 0x72, 0x11, 0xbe, 0xba, 0xcb, 0x27, 0xbe, 0x7e, 0x65, 0x9d, 0x3e, 0xa4, 0x64, 0x3e, 0x3d, 0xc7, 0xee, 0x1c, 0x3f, 0x68, 0x9c, 0xc6, 0xbd, 0xd6, 0x47, 0x4c, 0xbe, 0xe5, 0x2a, 0xec, 0x3b, 0x2b, 0x69, 0xb3, 0x3e, 0xb4, 0x33, 0xbc, 0xbe, 0xde, 0x94, 0x14, 0x3e, 0x30, 0xc4, 0x10, 0xbe, 0x90, 0x9c, 0x08, 0xbe, 0xae, 0x2b, 0x2d, 0xbe, 0xfd, 0x02, 0xe7, 0x3d, 0x81, 0xa5, 0xb0, 0x3e, 0x4b, 0xb3, 0x8b, 0xbd, 0x50, 0x8f, 0x79, 0x3d, 0x3d, 0xa2, 0xc2, 0xbc, 0x96, 0x76, 0x60, 0x3e, 0x1f, 0x51, 0xef, 0x3d, 0x74, 0x15, 0xbb, 0x3e, 0xd5, 0x4c, 0xc6, 0x3e, 0x80, 0xe4, 0x49, 0x3e, 0x95, 0x5e, 0xfc, 0xbe, 0x44, 0x38, 0x03, 0x3e, 0x64, 0x1f, 0x34, 0x3e, 0xa0, 0xe1, 0x2a, 0xbb, 0x12, 0xf5, 0xcd, 0xbd, 0x51, 0xf9, 0x66, 0xbe, 0xa7, 0xc4, 0x4c, 0xbe, 0x63, 0x9e, 0x43, 0x3e, 0xb6, 0x0f, 0x00, 0x3e, 0x04, 0x56, 0xc0, 0xbe, 0xbb, 0x77, 0x2f, 0xbc, 0xe6, 0xe2, 0x97, 0x3e, 0x76, 0x61, 0x24, 0x3e, 0xbb, 0x9d, 0xea, 0xbc, 0x94, 0xbe, 0x0b, 0xbe, 0x84, 0x27, 0xdf, 0x3e, 0xae, 0x97, 0x27, 0xbe, 0x7b, 0x9c, 0xe1, 0x3e, 0x26, 0x41, 0x30, 0xbe, 0x4b, 0x90, 0x82, 0x3d, 0xc5, 0x6f, 0x38, 0xbe, 0xdd, 0x32, 0x24, 0xbe, 0x81, 0x5e, 0x11, 0xbf, 0x65, 0xde, 0x18, 0xbe, 0x8d, 0x95, 0x1d, 0x3e, 0x3e, 0xb0, 0xbe, 0xbe, 0x84, 0xc0, 0xe9, 0xbe, 0x8b, 0xc9, 0x2b, 0xbe, 0x99, 0x6e, 0xa2, 0x3d, 0xcd, 0x03, 0x17, 0xbc, 0x09, 0xc6, 0xa3, 0xbe, 0xf4, 0x09, 0xfd, 0x3b, 0x6c, 0xaa, 0x78, 0x3e, 0x5c, 0x3c, 0xb5, 0x3e, 0x71, 0xe4, 0x15, 0x3d, 0x68, 0x38, 0x97, 0xbd, 0x3c, 0xf3, 0x0b, 0x3e, 0x33, 0xd8, 0x0a, 0xbf, 0x42, 0x4b, 0x8b, 0xbd, 0x88, 0xd2, 0x60, 0xbc, 0xe1, 0xd4, 0x31, 0xbd, 0x99, 0xef, 0x9c, 0x3e, 0x89, 0x67, 0x28, 0xbe, 0x24, 0xe2, 0x76, 0xbe, 0x40, 0x3f, 0xea, 0xbe, 0xb4, 0xb4, 0x42, 0x3e, 0x81, 0x21, 0xcf, 0x3c, 0xb2, 0xce, 0x81, 0xbe, 0x1a, 0x9a, 0x7a, 0xbe, 0x06, 0x8b, 0x10, 0x3f, 0xde, 0xb3, 0x96, 0x3a, 0x08, 0xf8, 0xb2, 0x3d, 0x04, 0xf3, 0x0f, 0xbe, 0x4e, 0xe0, 0x8c, 0x3d, 0x4a, 0x7f, 0xe1, 0xbd, 0xdc, 0xd8, 0x8e, 0xbe, 0x26, 0x0d, 0x0a, 0x3d, 0x08, 0x76, 0x09, 0x3e, 0xae, 0xaf, 0x3f, 0x3e, 0xa1, 0x6d, 0x60, 0x3c, 0xa6, 0x56, 0x98, 0xbe, 0x9a, 0x99, 0x87, 0xbd, 0x56, 0xbe, 0x01, 0x3e, 0xbe, 0x6f, 0xa7, 0xbe, 0xce, 0xeb, 0xd5, 0x3e, 0xf4, 0xb7, 0x1a, 0xbe, 0x3e, 0xe7, 0xfa, 0xbd, 0xee, 0x96, 0xb0, 0xbc, 0x6b, 0x7c, 0x75, 0x3e, 0xb7, 0x26, 0x03, 0x3f, 0xab, 0x6b, 0xa3, 0x3e, 0xe6, 0x37, 0x7b, 0xbe, 0x6f, 0x90, 0xb9, 0xbe, 0xcc, 0x25, 0x75, 0x3e, 0x47, 0x49, 0xc4, 0x3e, 0x76, 0xac, 0xb7, 0xbe, 0xf7, 0xa4, 0x2c, 0xbd, 0x8d, 0xe9, 0xb7, 0x3d, 0x99, 0x12, 0x3f, 0xbe, 0x32, 0x2b, 0xe0, 0x3d, 0xd0, 0xff, 0x3c, 0xbd, 0xbc, 0x6e, 0xfd, 0xbe, 0x4a, 0x3a, 0x07, 0x3e, 0x09, 0x21, 0x4d, 0xbd, 0x9d, 0xf5, 0xe5, 0x3d, 0xb7, 0x8e, 0x77, 0x3d, 0xed, 0x96, 0x48, 0x3e, 0xe8, 0x65, 0xfd, 0x3e, 0x8d, 0x63, 0x6b, 0xbd, 0x59, 0x91, 0xb3, 0x3d, 0xea, 0x24, 0x4e, 0x3e, 0x0c, 0x60, 0x38, 0x3e, 0xc9, 0x5e, 0x94, 0x3e, 0x7d, 0x65, 0xb6, 0x3d, 0xbb, 0x08, 0x86, 0x3e, 0xde, 0x98, 0xe8, 0x3c, 0x90, 0x73, 0x40, 0x3e, 0x8c, 0xe1, 0x8c, 0xbd, 0x19, 0x70, 0x6c, 0xbe, 0x88, 0x77, 0xbd, 0x3d, 0xb0, 0x2b, 0x98, 0xbd, 0x9b, 0x44, 0x7d, 0x3e, 0x9c, 0xca, 0xa9, 0x3d, 0x65, 0x05, 0x17, 0x3e, 0x16, 0x47, 0x60, 0xbe, 0x1c, 0x23, 0x14, 0x3e, 0xc2, 0xa8, 0x71, 0x3e, 0x08, 0x45, 0xb7, 0x3e, 0xa5, 0x02, 0xf5, 0x3e, 0x41, 0xf5, 0xac, 0xbe, 0x57, 0x5c, 0x38, 0xbd, 0xad, 0x5c, 0x2b, 0x3c, 0x65, 0x11, 0xc0, 0x3e, 0xde, 0x5c, 0x14, 0xbf, 0x52, 0xc7, 0x1a, 0x3d, 0x70, 0x74, 0x35, 0x3e, 0xa8, 0x43, 0xf6, 0xbd, 0x44, 0x24, 0xd2, 0xbe, 0x45, 0x88, 0x4f, 0x3e, 0xb3, 0x96, 0x47, 0x3e, 0x2a, 0x1c, 0xc8, 0xbd, 0xb0, 0x00, 0x1c, 0x3d, 0xb5, 0x7c, 0x9f, 0x3d, 0x87, 0x2d, 0x55, 0x3e, 0x66, 0x32, 0x6c, 0x3e, 0xf3, 0xfe, 0x0c, 0x3e, 0x27, 0xb5, 0x8b, 0x3e, 0x1b, 0x89, 0x66, 0x3e, 0xb0, 0xb3, 0x0b, 0xbe, 0x68, 0x6f, 0x99, 0xbd, 0x85, 0x8f, 0x73, 0x3e, 0xa1, 0x7b, 0x31, 0x3e, 0x08, 0xa9, 0x51, 0xbe, 0xc3, 0x67, 0x28, 0xbe, 0x5d, 0x80, 0x03, 0xbe, 0x60, 0x02, 0xc1, 0x3c, 0x2c, 0xab, 0xe9, 0x3e, 0x6b, 0xb1, 0x0b, 0xbf, 0xd8, 0x0b, 0xcd, 0xbe, 0x1f, 0xb2, 0x2e, 0x3f, 0xcb, 0x32, 0x8f, 0x3e, 0xd7, 0x9c, 0x3d, 0x3e, 0xb8, 0xf2, 0x2c, 0x3e, 0xf2, 0xfa, 0xc5, 0x3d, 0xdd, 0x68, 0x8a, 0xbe, 0x2f, 0xf9, 0xdf, 0x3e, 0x60, 0x66, 0xbd, 0xbb, 0x39, 0x51, 0xfb, 0x3d, 0x6c, 0x93, 0x12, 0xbe, 0x13, 0xba, 0x7d, 0xbe, 0xaa, 0x22, 0xc3, 0xbe, 0xe3, 0xa1, 0xe9, 0xbd, 0xf0, 0x4b, 0x75, 0x3e, 0x9c, 0xbb, 0x6e, 0xbd, 0xd8, 0xb6, 0xf1, 0xbe, 0xc4, 0x08, 0x4d, 0xbe, 0x91, 0xb2, 0xbf, 0xbe, 0xa2, 0x57, 0x00, 0x3e, 0xf0, 0x21, 0x3e, 0xbe, 0x66, 0xa1, 0x37, 0x3c, 0x80, 0x5b, 0xe5, 0xbb, 0x5a, 0x7b, 0xa7, 0xbd, 0xe3, 0x36, 0xf3, 0x3d, 0xc0, 0x78, 0xc9, 0xbc, 0x90, 0x23, 0x5f, 0xbe, 0x86, 0x66, 0xf5, 0xbe, 0x73, 0x34, 0x7a, 0xbd, 0xfa, 0x2e, 0x81, 0xbd, 0x07, 0x29, 0x27, 0xbe, 0x22, 0xa2, 0xa6, 0x3c, 0x5c, 0xd0, 0x61, 0x3d, 0xa9, 0x1d, 0x20, 0x3e, 0x4b, 0x51, 0x65, 0xbe, 0xfb, 0xd6, 0x9c, 0x3e, 0xf5, 0x07, 0xa4, 0x3d, 0xb8, 0xca, 0xa0, 0xbe, 0x9d, 0xc2, 0xad, 0xbd, 0x8b, 0x98, 0x0b, 0x3f, 0xc6, 0x38, 0x1f, 0xbd, 0xe0, 0xd0, 0x26, 0x3e, 0xd0, 0x7a, 0x07, 0x3d, 0x3d, 0xb0, 0xbb, 0x3e, 0x21, 0x8e, 0x80, 0xbe, 0xfc, 0x88, 0xc2, 0xbe, 0xf3, 0x90, 0x51, 0xbd, 0x58, 0x74, 0xa0, 0x3d, 0xf4, 0x90, 0x1c, 0x3e, 0x52, 0x22, 0xe0, 0xbd, 0xec, 0xd7, 0xbe, 0xbe, 0x9c, 0x41, 0x36, 0xbd, 0xfe, 0x7f, 0x92, 0x3d, 0xe1, 0xe7, 0x70, 0xbe, 0x0e, 0x9a, 0x50, 0x3e, 0x44, 0xf8, 0x05, 0xbe, 0xd8, 0xc7, 0xd4, 0xbd, 0x2c, 0xe9, 0xab, 0x3d, 0x0e, 0xfb, 0xff, 0xff, 0x04, 0x00, 0x00, 0x00, 0x00, 0x03, 0x00, 0x00, 0xb5, 0x3a, 0x4e, 0xbe, 0x1c, 0x9f, 0x7a, 0x3e, 0x93, 0x36, 0x10, 0x3e, 0x04, 0xad, 0x37, 0x3d, 0x67, 0xec, 0x84, 0xbe, 0x71, 0xfc, 0xbe, 0x3e, 0x3c, 0x85, 0xa1, 0xbe, 0xbf, 0x01, 0x63, 0x3e, 0xcb, 0x48, 0x2d, 0x3e, 0xec, 0x50, 0xa0, 0x3e, 0x73, 0x7c, 0x70, 0xbe, 0xd5, 0x85, 0xec, 0x3d, 0x50, 0x14, 0xd9, 0x3e, 0x1f, 0xe0, 0x7f, 0xbe, 0x90, 0xf2, 0x37, 0x3d, 0x9f, 0xa8, 0xea, 0xbd, 0x02, 0xca, 0xc0, 0x3e, 0x23, 0x12, 0xb6, 0xbe, 0x3b, 0x4c, 0xdf, 0xbd, 0xe4, 0x05, 0x2d, 0x3e, 0x2f, 0x61, 0xeb, 0x3d, 0xd7, 0xee, 0x64, 0x3e, 0x6f, 0x16, 0x3b, 0xbe, 0x3a, 0x4c, 0x21, 0xbe, 0x91, 0xd5, 0x53, 0x3e, 0xb6, 0x4f, 0x24, 0x3c, 0xa8, 0x5e, 0xf1, 0xbb, 0x93, 0xc2, 0x5f, 0xbe, 0xa4, 0x19, 0x11, 0x3e, 0xc6, 0x30, 0xae, 0x3e, 0xa2, 0x80, 0x84, 0x3e, 0x60, 0x0a, 0xa1, 0x39, 0xe0, 0xd5, 0xa0, 0x3d, 0xcf, 0xd3, 0x7d, 0x3e, 0x7a, 0x3e, 0xc5, 0xbb, 0x0d, 0x03, 0xb6, 0xbd, 0x85, 0xd2, 0xb3, 0x3d, 0xe0, 0x54, 0xa7, 0x3e, 0x57, 0x0c, 0xe3, 0x3c, 0x6e, 0xd4, 0x31, 0x3e, 0xca, 0xe2, 0x17, 0xbe, 0x79, 0x8d, 0x0f, 0xbe, 0x59, 0x25, 0x06, 0xbe, 0xaf, 0xad, 0x9b, 0x3e, 0xa4, 0x87, 0x9f, 0x3e, 0xeb, 0xdf, 0x6e, 0x3c, 0x3b, 0xdb, 0x68, 0xbe, 0x7b, 0x92, 0x29, 0x3e, 0x06, 0x1e, 0xbe, 0x3d, 0x53, 0xde, 0xc5, 0x3e, 0x72, 0xcd, 0x6b, 0x3d, 0x7c, 0xc1, 0x60, 0xbe, 0x5a, 0xb3, 0x8b, 0x3d, 0xdd, 0x83, 0xb7, 0x3e, 0xb2, 0xd7, 0x12, 0x3e, 0xdf, 0xcc, 0xbd, 0xbe, 0xe8, 0x68, 0xc9, 0x3e, 0xee, 0x4c, 0x82, 0x3d, 0xf0, 0x1a, 0xa5, 0xbe, 0x72, 0xce, 0xe4, 0x3e, 0x04, 0x4f, 0xbd, 0x3e, 0xb0, 0xc8, 0x25, 0x3e, 0x87, 0xe9, 0x71, 0x3e, 0xca, 0xd9, 0xac, 0xbd, 0x3f, 0x89, 0x01, 0x3e, 0x5c, 0x72, 0x13, 0x3e, 0x8f, 0x4f, 0xd7, 0xbd, 0x63, 0x47, 0xb9, 0x3e, 0xca, 0xce, 0xb4, 0xbe, 0x63, 0x41, 0xb2, 0xbe, 0x39, 0xbe, 0xb8, 0x3e, 0xc1, 0x0a, 0x05, 0x3d, 0x5a, 0x44, 0xbc, 0xbe, 0x51, 0x32, 0xc4, 0x3e, 0x6f, 0xad, 0x2a, 0x3e, 0xd3, 0x2a, 0xc4, 0x3e, 0x4e, 0xd2, 0x8b, 0xbd, 0xc5, 0x23, 0x42, 0x3c, 0x58, 0x91, 0xfa, 0x3d, 0xcf, 0xe1, 0xa2, 0xbe, 0x8a, 0xc0, 0xad, 0x3e, 0x8b, 0xe6, 0x09, 0x3e, 0x4d, 0x36, 0x8c, 0xbe, 0xcc, 0x12, 0x89, 0xbb, 0x01, 0x67, 0x1b, 0xbe, 0x82, 0x43, 0x08, 0xbe, 0xb0, 0x10, 0xc3, 0xbd, 0xe1, 0x44, 0x71, 0x3e, 0x21, 0x00, 0x6c, 0xbe, 0x0c, 0xd3, 0x83, 0x3e, 0xa3, 0x66, 0xbf, 0x3e, 0xd6, 0x1d, 0x5f, 0x3e, 0x40, 0x06, 0x7b, 0xbe, 0xfa, 0x9d, 0x37, 0xbe, 0x29, 0x48, 0x86, 0xbe, 0x2e, 0x31, 0x51, 0xbe, 0x0b, 0xe7, 0x12, 0xbe, 0x63, 0x6c, 0x19, 0xbe, 0x6a, 0xa8, 0x6d, 0xbe, 0x4a, 0x02, 0x1a, 0xbe, 0x71, 0xe8, 0x5d, 0x3e, 0x48, 0x18, 0xe2, 0xbd, 0x04, 0x09, 0x69, 0x3e, 0x65, 0x6a, 0x29, 0xbe, 0x22, 0x91, 0x32, 0xbe, 0xfd, 0x53, 0xcc, 0x3d, 0xf7, 0x78, 0xd3, 0x3e, 0xa3, 0x93, 0xa2, 0x3d, 0xc1, 0xf9, 0x9f, 0x3e, 0xe0, 0x22, 0x6f, 0x3c, 0x38, 0xa8, 0x5d, 0x3d, 0x18, 0x81, 0x9f, 0x3e, 0xbb, 0xb6, 0x44, 0xbd, 0x90, 0xe3, 0x93, 0x3e, 0x6c, 0x98, 0x85, 0xbe, 0x5c, 0xb7, 0xa4, 0x3e, 0x28, 0xb5, 0xa3, 0x3d, 0x94, 0x0b, 0x86, 0xbe, 0xda, 0x26, 0x1f, 0x3e, 0xa7, 0xf4, 0x98, 0x3e, 0x35, 0x81, 0xc9, 0xbd, 0xb5, 0xb2, 0x9e, 0x3e, 0x00, 0x5a, 0x9b, 0xbe, 0xa8, 0x47, 0x83, 0x3e, 0xf2, 0xdb, 0x50, 0xbd, 0x03, 0x31, 0x19, 0xbe, 0x87, 0x6f, 0x78, 0x3e, 0x8f, 0xce, 0x5c, 0xbe, 0x18, 0x08, 0xad, 0x3d, 0x19, 0x8a, 0x93, 0xbd, 0x88, 0x7f, 0xfb, 0x3c, 0x17, 0x98, 0x68, 0x3e, 0xb2, 0xc6, 0xce, 0xbe, 0x31, 0xc6, 0xcf, 0x3e, 0x71, 0x6e, 0x97, 0x3e, 0x88, 0x38, 0xf0, 0x3e, 0x78, 0x9d, 0x36, 0xbd, 0x78, 0xcc, 0xc7, 0x3c, 0xba, 0x73, 0x48, 0xbe, 0xf2, 0x9b, 0xcf, 0x3e, 0xb9, 0x60, 0xb6, 0xbc, 0x90, 0x4a, 0x2a, 0xbd, 0xd8, 0xaf, 0x93, 0xbe, 0x9e, 0x6a, 0xd1, 0xbd, 0x7c, 0x74, 0x73, 0xbd, 0x9b, 0x8d, 0x5b, 0xbe, 0xd5, 0x30, 0x8e, 0xbe, 0x6a, 0xa3, 0x97, 0x3e, 0x76, 0x7b, 0x0b, 0xbe, 0x91, 0xe9, 0x39, 0xbd, 0xd2, 0xcb, 0xab, 0xbe, 0x4d, 0x76, 0xa1, 0x3e, 0xcd, 0x3d, 0xb8, 0x3e, 0x3f, 0x4e, 0x16, 0xbe, 0x9d, 0xda, 0x7d, 0x3e, 0x5d, 0x8e, 0xfc, 0xbd, 0xf8, 0x54, 0x5f, 0x3e, 0x85, 0xfb, 0x76, 0xbe, 0xd9, 0x88, 0x48, 0x3e, 0xc8, 0x43, 0x8e, 0xbd, 0xb9, 0x84, 0x14, 0xbe, 0x68, 0x05, 0xf1, 0xbd, 0x0c, 0x83, 0x10, 0x3e, 0x63, 0x75, 0x72, 0x3e, 0x6a, 0xf1, 0x43, 0x3d, 0xdb, 0x2d, 0x7e, 0xbb, 0x58, 0x16, 0xa0, 0x3e, 0xb9, 0x7e, 0xa2, 0x3e, 0xe7, 0x43, 0x8b, 0xbd, 0x36, 0x19, 0x00, 0xbe, 0x53, 0x44, 0xad, 0x3e, 0xc2, 0x55, 0x47, 0xbe, 0xc4, 0xcf, 0x7d, 0x3e, 0xb9, 0xa1, 0x89, 0x3e, 0x90, 0xac, 0x6f, 0xbe, 0x96, 0x22, 0x43, 0x3e, 0xfa, 0xd5, 0xbe, 0x3e, 0x46, 0xfd, 0x0e, 0xbe, 0xd1, 0xe5, 0xd8, 0x3e, 0x03, 0xcb, 0xb6, 0xbe, 0x85, 0x33, 0x47, 0x3e, 0xbe, 0x5d, 0x9e, 0xbd, 0x03, 0x0e, 0x1f, 0xbe, 0x4b, 0x08, 0x83, 0xbe, 0x90, 0x12, 0xca, 0xbd, 0xb0, 0x4e, 0x5d, 0xbd, 0xe8, 0xaa, 0xe3, 0x3d, 0x97, 0x48, 0x2a, 0x3e, 0x42, 0x50, 0x8d, 0x3c, 0x79, 0x51, 0xc5, 0x3d, 0x43, 0x9d, 0x1c, 0x3e, 0x4b, 0xd6, 0x98, 0x3d, 0x1a, 0xfe, 0xff, 0xff, 0x04, 0x00, 0x00, 0x00, 0x00, 0x01, 0x00, 0x00, 0x5f, 0xaf, 0xcc, 0xbd, 0x52, 0x0c, 0xbe, 0xbd, 0x3e, 0x0f, 0x42, 0xbd, 0x36, 0xf9, 0x4b, 0x3e, 0x4b, 0x40, 0x44, 0x3e, 0x2a, 0xae, 0x81, 0x38, 0xb0, 0x88, 0xb8, 0xbd, 0xe1, 0xbc, 0x8e, 0x3e, 0x85, 0xf5, 0x5e, 0x3e, 0x71, 0xc8, 0xef, 0xbc, 0x2d, 0x74, 0x2f, 0x3e, 0x3d, 0x8b, 0x55, 0x3e, 0x4a, 0x50, 0xac, 0xbd, 0x0f, 0x56, 0x83, 0x3e, 0x1e, 0x40, 0x01, 0xbd, 0x0c, 0xdc, 0x6d, 0x3e, 0x0c, 0x8b, 0x4e, 0x3d, 0x7e, 0xca, 0x83, 0xbd, 0xff, 0x75, 0x4b, 0xbd, 0xc4, 0x73, 0xd8, 0xbd, 0xee, 0x17, 0x2f, 0x3e, 0x8b, 0xdd, 0xa4, 0xbd, 0xde, 0x5d, 0x02, 0x3c, 0x06, 0x98, 0xc9, 0xbc, 0x37, 0x52, 0x63, 0xbd, 0xcc, 0x37, 0x36, 0x3e, 0x3e, 0x87, 0x31, 0xbd, 0x1e, 0x56, 0x1e, 0xbd, 0x00, 0x00, 0x00, 0x00, 0x9a, 0x01, 0x4d, 0x3e, 0x17, 0x64, 0x47, 0x3e, 0x00, 0x00, 0x00, 0x00, 0x00, 0x00, 0x00, 0x00, 0xf3, 0x00, 0x2c, 0xbd, 0x07, 0xd7, 0x86, 0xbc, 0xb0, 0xfe, 0x7e, 0xbd, 0xec, 0x0e, 0xc5, 0x3d, 0x1e, 0xff, 0x5a, 0x3e, 0x7b, 0x7b, 0x89, 0xbd, 0x16, 0x6e, 0xae, 0xbc, 0x13, 0x5b, 0x41, 0x3c, 0xe7, 0xb9, 0x30, 0x3e, 0x9d, 0xc2, 0x54, 0x3e, 0x2b, 0x48, 0x07, 0xbe, 0xf1, 0xab, 0x95, 0xbd, 0x37, 0x6e, 0xfc, 0xbd, 0x6c, 0xa7, 0x8e, 0xbc, 0x00, 0x00, 0x00, 0x00, 0x00, 0x00, 0x00, 0x00, 0xd4, 0x20, 0x3e, 0x3e, 0x22, 0x2e, 0xbf, 0xbd, 0x78, 0x07, 0x80, 0xbd, 0xc1, 0xab, 0x45, 0x3e, 0x00, 0x00, 0x00, 0x00, 0x67, 0x48, 0x2b, 0x3e, 0x15, 0x09, 0x0c, 0xbb, 0xa3, 0x8e, 0x0f, 0xbe, 0x20, 0x5a, 0x80, 0xbd, 0xac, 0xdb, 0x6b, 0xbd, 0x8d, 0xaf, 0x00, 0xbd, 0xe0, 0x34, 0x55, 0x3e, 0x00, 0x00, 0x00, 0x00, 0x31, 0x37, 0x10, 0x3e, 0x7e, 0x3b, 0x82, 0xbd, 0x26, 0xff, 0xff, 0xff, 0x04, 0x00, 0x00, 0x00, 0x80, 0x00, 0x00, 0x00, 0x38, 0xad, 0x73, 0xbd, 0x98, 0x85, 0x3c, 0x3e, 0x27, 0x83, 0x38, 0x3e, 0xa8, 0x28, 0xdb, 0x3d, 0xe4, 0x76, 0x17, 0x3e, 0x7d, 0xc3, 0x22, 0x3e, 0xf7, 0x44, 0xa6, 0xbc, 0x6a, 0x85, 0xb8, 0x3d, 0x5d, 0x2c, 0xee, 0xbc, 0x4b, 0xd1, 0xf0, 0xbc, 0x57, 0x59, 0x19, 0x3e, 0x00, 0x00, 0x00, 0x00, 0xde, 0x56, 0x59, 0xbd, 0x41, 0xe8, 0x8e, 0x3d, 0xb6, 0x63, 0x38, 0x3e, 0x00, 0x00, 0x00, 0x00, 0xd2, 0x4e, 0x0c, 0x3d, 0x36, 0x06, 0x27, 0x3e, 0x14, 0x26, 0xde, 0xbd, 0x6b, 0x9c, 0x43, 0xbd, 0x4b, 0xc0, 0xae, 0xbc, 0xfe, 0x8b, 0x0c, 0xbd, 0x00, 0x00, 0x00, 0x00, 0x2b, 0x38, 0xe2, 0xbc, 0xeb, 0x77, 0x47, 0x3e, 0x14, 0xbd, 0x84, 0xbc, 0xa4, 0x9e, 0x3d, 0x3e, 0x00, 0x00, 0x00, 0x00, 0xba, 0xa6, 0xca, 0xbd, 0xce, 0x82, 0x36, 0x3e, 0x87, 0x24, 0x41, 0xbd, 0x13, 0x0a, 0x40, 0x3e, 0xb2, 0xff, 0xff, 0xff, 0x04, 0x00, 0x00, 0x00, 0x40, 0x00, 0x00, 0x00, 0x0a, 0x93, 0x01, 0xbc, 0xd1, 0xb3, 0x4a, 0x3e, 0x27, 0x4d, 0x39, 0xbd, 0xfe, 0x9d, 0x21, 0x3e, 0xca, 0x88, 0xe9, 0xbb, 0x31, 0xdf, 0x8d, 0xbb, 0xb9, 0x71, 0xc9, 0xbb, 0x94, 0xd4, 0x17, 0x3e, 0x00, 0x00, 0x00, 0x00, 0x9c, 0x8d, 0x57, 0xbd, 0x3f, 0xbc, 0xc4, 0xbb, 0x01, 0x29, 0xc6, 0xbd, 0x00, 0x00, 0x00, 0x00, 0x0a, 0xde, 0xd9, 0xbd, 0x5b, 0x45, 0x8a, 0xbd, 0xbe, 0xaf, 0x0a, 0xbc, 0x00, 0x00, 0x06, 0x00, 0x08, 0x00, 0x04, 0x00, 0x06, 0x00, 0x00, 0x00, 0x04, 0x00, 0x00, 0x00, 0x04, 0x00, 0x00, 0x00, 0x8f, 0x12, 0xf9, 0x3d, 0x6c, 0xf9, 0xff, 0xff, 0x70, 0xf9, 0xff, 0xff, 0x0f, 0x00, 0x00, 0x00, 0x4d, 0x4c, 0x49, 0x52, 0x20, 0x43, 0x6f, 0x6e, 0x76, 0x65, 0x72, 0x74, 0x65, 0x64, 0x2e, 0x00, 0x01, 0x00, 0x00, 0x00, 0x14, 0x00, 0x00, 0x00, 0x00, 0x00, 0x0e, 0x00, 0x18, 0x00, 0x14, 0x00, 0x10, 0x00, 0x0c, 0x00, 0x08, 0x00, 0x04, 0x00, 0x0e, 0x00, 0x00, 0x00, 0x14, 0x00, 0x00, 0x00, 0x1c, 0x00, 0x00, 0x00, 0x10, 0x01, 0x00, 0x00, 0x14, 0x01, 0x00, 0x00, 0x18, 0x01, 0x00, 0x00, 0x04, 0x00, 0x00, 0x00, 0x6d, 0x61, 0x69, 0x6e, 0x00, 0x00, 0x00, 0x00, 0x04, 0x00, 0x00, 0x00, 0xb8, 0x00, 0x00, 0x00, 0x70, 0x00, 0x00, 0x00, 0x38, 0x00, 0x00, 0x00, 0x04, 0x00, 0x00, 0x00, 0x66, 0xff, 0xff, 0xff, 0x10, 0x00, 0x00, 0x00, 0x00, 0x00, 0x00, 0x08, 0x0c, 0x00, 0x00, 0x00, 0x10, 0x00, 0x00, 0x00, 0xec, 0xf9, 0xff, 0xff, 0x01, 0x00, 0x00, 0x00, 0x0c, 0x00, 0x00, 0x00, 0x03, 0x00, 0x00, 0x00, 0x0b, 0x00, 0x00, 0x00, 0x08, 0x00, 0x00, 0x00, 0x01, 0x00, 0x00, 0x00, 0x96, 0xff, 0xff, 0xff, 0x10, 0x00, 0x00, 0x00, 0x00, 0x00, 0x00, 0x08, 0x10, 0x00, 0x00, 0x00, 0x14, 0x00, 0x00, 0x00, 0x86, 0xff, 0xff, 0xff, 0x00, 0x00, 0x00, 0x01, 0x01, 0x00, 0x00, 0x00, 0x0b, 0x00, 0x00, 0x00, 0x03, 0x00, 0x00, 0x00, 0x0a, 0x00, 0x00, 0x00, 0x07, 0x00, 0x00, 0x00, 0x02, 0x00, 0x00, 0x00, 0xca, 0xff, 0xff, 0xff, 0x10, 0x00, 0x00, 0x00, 0x00, 0x00, 0x00, 0x08, 0x10, 0x00, 0x00, 0x00, 0x14, 0x00, 0x00, 0x00, 0xba, 0xff, 0xff, 0xff, 0x00, 0x00, 0x00, 0x01, 0x01, 0x00, 0x00, 0x00, 0x0a, 0x00, 0x00, 0x00, 0x03, 0x00, 0x00, 0x00, 0x09, 0x00, 0x00, 0x00, 0x06, 0x00, 0x00, 0x00, 0x03, 0x00, 0x00, 0x00, 0x00, 0x00, 0x0e, 0x00, 0x16, 0x00, 0x00, 0x00, 0x10, 0x00, 0x0c, 0x00, 0x0b, 0x00, 0x04, 0x00, 0x0e, 0x00, 0x00, 0x00, 0x18, 0x00, 0x00, 0x00, 0x00, 0x00, 0x00, 0x08, 0x18, 0x00, 0x00, 0x00, 0x1c, 0x00, 0x00, 0x00, 0x00, 0x00, 0x06, 0x00, 0x08, 0x00, 0x07, 0x00, 0x06, 0x00, 0x00, 0x00, 0x00, 0x00, 0x00, 0x01, 0x01, 0x00, 0x00, 0x00, 0x09, 0x00, 0x00, 0x00, 0x03, 0x00, 0x00, 0x00, 0x00, 0x00, 0x00, 0x00, 0x05, 0x00, 0x00, 0x00, 0x04, 0x00, 0x00, 0x00, 0x01, 0x00, 0x00, 0x00, 0x0c, 0x00, 0x00, 0x00, 0x01, 0x00, 0x00, 0x00, 0x00, 0x00, 0x00, 0x00, 0x0d, 0x00, 0x00, 0x00, 0x08, 0x05, 0x00, 0x00, 0x94, 0x04, 0x00, 0x00, 0x20, 0x04, 0x00, 0x00, 0xc4, 0x03, 0x00, 0x00, 0x68, 0x03, 0x00, 0x00, 0x18, 0x03, 0x00, 0x00, 0xc8, 0x02, 0x00, 0x00, 0x78, 0x02, 0x00, 0x00, 0x28, 0x02, 0x00, 0x00, 0x90, 0x01, 0x00, 0x00, 0xf8, 0x00, 0x00, 0x00, 0x60, 0x00, 0x00, 0x00, 0x04, 0x00, 0x00, 0x00, 0x42, 0xfb, 0xff, 0xff, 0x00, 0x00, 0x00, 0x01, 0x14, 0x00, 0x00, 0x00, 0x1c, 0x00, 0x00, 0x00, 0x1c, 0x00, 0x00, 0x00, 0x0d, 0x00, 0x00, 0x00, 0x34, 0x00, 0x00, 0x00, 0x02, 0x00, 0x00, 0x00, 0xff, 0xff, 0xff, 0xff, 0x01, 0x00, 0x00, 0x00, 0x2c, 0xfb, 0xff, 0xff, 0x19, 0x00, 0x00, 0x00, 0x53, 0x74, 0x61, 0x74, 0x65, 0x66, 0x75, 0x6c, 0x50, 0x61, 0x72, 0x74, 0x69, 0x74, 0x69, 0x6f, 0x6e, 0x65, 0x64, 0x43, 0x61, 0x6c, 0x6c, 0x3a, 0x30, 0x00, 0x00, 0x00, 0x02, 0x00, 0x00, 0x00, 0x01, 0x00, 0x00, 0x00, 0x01, 0x00, 0x00, 0x00, 0x9a, 0xfb, 0xff, 0xff, 0x00, 0x00, 0x00, 0x01, 0x14, 0x00, 0x00, 0x00, 0x1c, 0x00, 0x00, 0x00, 0x1c, 0x00, 0x00, 0x00, 0x0c, 0x00, 0x00, 0x00, 0x70, 0x00, 0x00, 0x00, 0x02, 0x00, 0x00, 0x00, 0xff, 0xff, 0xff, 0xff, 0x10, 0x00, 0x00, 0x00, 0x84, 0xfb, 0xff, 0xff, 0x55, 0x00, 0x00, 0x00, 0x73, 0x65, 0x71, 0x75, 0x65, 0x6e, 0x74, 0x69, 0x61, 0x6c, 0x5f, 0x35, 0x2f, 0x64, 0x65, 0x6e, 0x73, 0x65, 0x5f, 0x31, 0x39, 0x2f, 0x4d, 0x61, 0x74, 0x4d, 0x75, 0x6c, 0x3b, 0x73, 0x65, 0x71, 0x75, 0x65, 0x6e, 0x74, 0x69, 0x61, 0x6c, 0x5f, 0x35, 0x2f, 0x64, 0x65, 0x6e, 0x73, 0x65, 0x5f, 0x31, 0x39, 0x2f, 0x52, 0x65, 0x6c, 0x75, 0x3b, 0x73, 0x65, 0x71, 0x75, 0x65, 0x6e, 0x74, 0x69, 0x61, 0x6c, 0x5f, 0x35, 0x2f, 0x64, 0x65, 0x6e, 0x73, 0x65, 0x5f, 0x31, 0x39, 0x2f, 0x42, 0x69, 0x61, 0x73, 0x41, 0x64, 0x64, 0x00, 0x00, 0x00, 0x02, 0x00, 0x00, 0x00, 0x01, 0x00, 0x00, 0x00, 0x10, 0x00, 0x00, 0x00, 0x2e, 0xfc, 0xff, 0xff, 0x00, 0x00, 0x00, 0x01, 0x14, 0x00, 0x00, 0x00, 0x1c, 0x00, 0x00, 0x00, 0x1c, 0x00, 0x00, 0x00, 0x0b, 0x00, 0x00, 0x00, 0x70, 0x00, 0x00, 0x00, 0x02, 0x00, 0x00, 0x00, 0xff, 0xff, 0xff, 0xff, 0x20, 0x00, 0x00, 0x00, 0x18, 0xfc, 0xff, 0xff, 0x55, 0x00, 0x00, 0x00, 0x73, 0x65, 0x71, 0x75, 0x65, 0x6e, 0x74, 0x69, 0x61, 0x6c, 0x5f, 0x35, 0x2f, 0x64, 0x65, 0x6e, 0x73, 0x65, 0x5f, 0x31, 0x38, 0x2f, 0x4d, 0x61, 0x74, 0x4d, 0x75, 0x6c, 0x3b, 0x73, 0x65, 0x71, 0x75, 0x65, 0x6e, 0x74, 0x69, 0x61, 0x6c, 0x5f, 0x35, 0x2f, 0x64, 0x65, 0x6e, 0x73, 0x65, 0x5f, 0x31, 0x38, 0x2f, 0x52, 0x65, 0x6c, 0x75, 0x3b, 0x73, 0x65, 0x71, 0x75, 0x65, 0x6e, 0x74, 0x69, 0x61, 0x6c, 0x5f, 0x35, 0x2f, 0x64, 0x65, 0x6e, 0x73, 0x65, 0x5f, 0x31, 0x38, 0x2f, 0x42, 0x69, 0x61, 0x73, 0x41, 0x64, 0x64, 0x00, 0x00, 0x00, 0x02, 0x00, 0x00, 0x00, 0x01, 0x00, 0x00, 0x00, 0x20, 0x00, 0x00, 0x00, 0xc2, 0xfc, 0xff, 0xff, 0x00, 0x00, 0x00, 0x01, 0x14, 0x00, 0x00, 0x00, 0x1c, 0x00, 0x00, 0x00, 0x1c, 0x00, 0x00, 0x00, 0x0a, 0x00, 0x00, 0x00, 0x70, 0x00, 0x00, 0x00, 0x02, 0x00, 0x00, 0x00, 0xff, 0xff, 0xff, 0xff, 0x40, 0x00, 0x00, 0x00, 0xac, 0xfc, 0xff, 0xff, 0x55, 0x00, 0x00, 0x00, 0x73, 0x65, 0x71, 0x75, 0x65, 0x6e, 0x74, 0x69, 0x61, 0x6c, 0x5f, 0x35, 0x2f, 0x64, 0x65, 0x6e, 0x73, 0x65, 0x5f, 0x31, 0x37, 0x2f, 0x4d, 0x61, 0x74, 0x4d, 0x75, 0x6c, 0x3b, 0x73, 0x65, 0x71, 0x75, 0x65, 0x6e, 0x74, 0x69, 0x61, 0x6c, 0x5f, 0x35, 0x2f, 0x64, 0x65, 0x6e, 0x73, 0x65, 0x5f, 0x31, 0x37, 0x2f, 0x52, 0x65, 0x6c, 0x75, 0x3b, 0x73, 0x65, 0x71, 0x75, 0x65, 0x6e, 0x74, 0x69, 0x61, 0x6c, 0x5f, 0x35, 0x2f, 0x64, 0x65, 0x6e, 0x73, 0x65, 0x5f, 0x31, 0x37, 0x2f, 0x42, 0x69, 0x61, 0x73, 0x41, 0x64, 0x64, 0x00, 0x00, 0x00, 0x02, 0x00, 0x00, 0x00, 0x01, 0x00, 0x00, 0x00, 0x40, 0x00, 0x00, 0x00, 0xc6, 0xfd, 0xff, 0xff, 0x00, 0x00, 0x00, 0x01, 0x10, 0x00, 0x00, 0x00, 0x10, 0x00, 0x00, 0x00, 0x09, 0x00, 0x00, 0x00, 0x2c, 0x00, 0x00, 0x00, 0x30, 0xfd, 0xff, 0xff, 0x1c, 0x00, 0x00, 0x00, 0x73, 0x65, 0x71, 0x75, 0x65, 0x6e, 0x74, 0x69, 0x61, 0x6c, 0x5f, 0x35, 0x2f, 0x64, 0x65, 0x6e, 0x73, 0x65, 0x5f, 0x32, 0x30, 0x2f, 0x4d, 0x61, 0x74, 0x4d, 0x75, 0x6c, 0x00, 0x00, 0x00, 0x00, 0x02, 0x00, 0x00, 0x00, 0x01, 0x00, 0x00, 0x00, 0x10, 0x00, 0x00, 0x00, 0x12, 0xfe, 0xff, 0xff, 0x00, 0x00, 0x00, 0x01, 0x10, 0x00, 0x00, 0x00, 0x10, 0x00, 0x00, 0x00, 0x08, 0x00, 0x00, 0x00, 0x2c, 0x00, 0x00, 0x00, 0x7c, 0xfd, 0xff, 0xff, 0x1c, 0x00, 0x00, 0x00, 0x73, 0x65, 0x71, 0x75, 0x65, 0x6e, 0x74, 0x69, 0x61, 0x6c, 0x5f, 0x35, 0x2f, 0x64, 0x65, 0x6e, 0x73, 0x65, 0x5f, 0x31, 0x39, 0x2f, 0x4d, 0x61, 0x74, 0x4d, 0x75, 0x6c, 0x00, 0x00, 0x00, 0x00, 0x02, 0x00, 0x00, 0x00, 0x10, 0x00, 0x00, 0x00, 0x20, 0x00, 0x00, 0x00, 0x5e, 0xfe, 0xff, 0xff, 0x00, 0x00, 0x00, 0x01, 0x10, 0x00, 0x00, 0x00, 0x10, 0x00, 0x00, 0x00, 0x07, 0x00, 0x00, 0x00, 0x2c, 0x00, 0x00, 0x00, 0xc8, 0xfd, 0xff, 0xff, 0x1c, 0x00, 0x00, 0x00, 0x73, 0x65, 0x71, 0x75, 0x65, 0x6e, 0x74, 0x69, 0x61, 0x6c, 0x5f, 0x35, 0x2f, 0x64, 0x65, 0x6e, 0x73, 0x65, 0x5f, 0x31, 0x38, 0x2f, 0x4d, 0x61, 0x74, 0x4d, 0x75, 0x6c, 0x00, 0x00, 0x00, 0x00, 0x02, 0x00, 0x00, 0x00, 0x20, 0x00, 0x00, 0x00, 0x40, 0x00, 0x00, 0x00, 0xaa, 0xfe, 0xff, 0xff, 0x00, 0x00, 0x00, 0x01, 0x10, 0x00, 0x00, 0x00, 0x10, 0x00, 0x00, 0x00, 0x06, 0x00, 0x00, 0x00, 0x2c, 0x00, 0x00, 0x00, 0x14, 0xfe, 0xff, 0xff, 0x1c, 0x00, 0x00, 0x00, 0x73, 0x65, 0x71, 0x75, 0x65, 0x6e, 0x74, 0x69, 0x61, 0x6c, 0x5f, 0x35, 0x2f, 0x64, 0x65, 0x6e, 0x73, 0x65, 0x5f, 0x31, 0x37, 0x2f, 0x4d, 0x61, 0x74, 0x4d, 0x75, 0x6c, 0x00, 0x00, 0x00, 0x00, 0x02, 0x00, 0x00, 0x00, 0x40, 0x00, 0x00, 0x00, 0x03, 0x00, 0x00, 0x00, 0xf6, 0xfe, 0xff, 0xff, 0x00, 0x00, 0x00, 0x01, 0x10, 0x00, 0x00, 0x00, 0x10, 0x00, 0x00, 0x00, 0x05, 0x00, 0x00, 0x00, 0x3c, 0x00, 0x00, 0x00, 0x60, 0xfe, 0xff, 0xff, 0x2c, 0x00, 0x00, 0x00, 0x73, 0x65, 0x71, 0x75, 0x65, 0x6e, 0x74, 0x69, 0x61, 0x6c, 0x5f, 0x35, 0x2f, 0x64, 0x65, 0x6e, 0x73, 0x65, 0x5f, 0x31, 0x37, 0x2f, 0x42, 0x69, 0x61, 0x73, 0x41, 0x64, 0x64, 0x2f, 0x52, 0x65, 0x61, 0x64, 0x56, 0x61, 0x72, 0x69, 0x61, 0x62, 0x6c, 0x65, 0x4f, 0x70, 0x00, 0x00, 0x00, 0x00, 0x01, 0x00, 0x00, 0x00, 0x40, 0x00, 0x00, 0x00, 0x4e, 0xff, 0xff, 0xff, 0x00, 0x00, 0x00, 0x01, 0x10, 0x00, 0x00, 0x00, 0x10, 0x00, 0x00, 0x00, 0x04, 0x00, 0x00, 0x00, 0x3c, 0x00, 0x00, 0x00, 0xb8, 0xfe, 0xff, 0xff, 0x2c, 0x00, 0x00, 0x00, 0x73, 0x65, 0x71, 0x75, 0x65, 0x6e, 0x74, 0x69, 0x61, 0x6c, 0x5f, 0x35, 0x2f, 0x64, 0x65, 0x6e, 0x73, 0x65, 0x5f, 0x31, 0x38, 0x2f, 0x42, 0x69, 0x61, 0x73, 0x41, 0x64, 0x64, 0x2f, 0x52, 0x65, 0x61, 0x64, 0x56, 0x61, 0x72, 0x69, 0x61, 0x62, 0x6c, 0x65, 0x4f, 0x70, 0x00, 0x00, 0x00, 0x00, 0x01, 0x00, 0x00, 0x00, 0x20, 0x00, 0x00, 0x00, 0xa6, 0xff, 0xff, 0xff, 0x00, 0x00, 0x00, 0x01, 0x10, 0x00, 0x00, 0x00, 0x10, 0x00, 0x00, 0x00, 0x03, 0x00, 0x00, 0x00, 0x3c, 0x00, 0x00, 0x00, 0x10, 0xff, 0xff, 0xff, 0x2c, 0x00, 0x00, 0x00, 0x73, 0x65, 0x71, 0x75, 0x65, 0x6e, 0x74, 0x69, 0x61, 0x6c, 0x5f, 0x35, 0x2f, 0x64, 0x65, 0x6e, 0x73, 0x65, 0x5f, 0x31, 0x39, 0x2f, 0x42, 0x69, 0x61, 0x73, 0x41, 0x64, 0x64, 0x2f, 0x52, 0x65, 0x61, 0x64, 0x56, 0x61, 0x72, 0x69, 0x61, 0x62, 0x6c, 0x65, 0x4f, 0x70, 0x00, 0x00, 0x00, 0x00, 0x01, 0x00, 0x00, 0x00, 0x10, 0x00, 0x00, 0x00, 0x00, 0x00, 0x16, 0x00, 0x18, 0x00, 0x14, 0x00, 0x00, 0x00, 0x10, 0x00, 0x0c, 0x00, 0x08, 0x00, 0x00, 0x00, 0x00, 0x00, 0x00, 0x00, 0x07, 0x00, 0x16, 0x00, 0x00, 0x00, 0x00, 0x00, 0x00, 0x01, 0x10, 0x00, 0x00, 0x00, 0x10, 0x00, 0x00, 0x00, 0x02, 0x00, 0x00, 0x00, 0x3c, 0x00, 0x00, 0x00, 0x80, 0xff, 0xff, 0xff, 0x2c, 0x00, 0x00, 0x00, 0x73, 0x65, 0x71, 0x75, 0x65, 0x6e, 0x74, 0x69, 0x61, 0x6c, 0x5f, 0x35, 0x2f, 0x64, 0x65, 0x6e, 0x73, 0x65, 0x5f, 0x32, 0x30, 0x2f, 0x42, 0x69, 0x61, 0x73, 0x41, 0x64, 0x64, 0x2f, 0x52, 0x65, 0x61, 0x64, 0x56, 0x61, 0x72, 0x69, 0x61, 0x62, 0x6c, 0x65, 0x4f, 0x70, 0x00, 0x00, 0x00, 0x00, 0x01, 0x00, 0x00, 0x00, 0x01, 0x00, 0x00, 0x00, 0x00, 0x00, 0x16, 0x00, 0x1c, 0x00, 0x18, 0x00, 0x00, 0x00, 0x14, 0x00, 0x10, 0x00, 0x0c, 0x00, 0x00, 0x00, 0x00, 0x00, 0x08, 0x00, 0x07, 0x00, 0x16, 0x00, 0x00, 0x00, 0x00, 0x00, 0x00, 0x01, 0x14, 0x00, 0x00, 0x00, 0x20, 0x00, 0x00, 0x00, 0x20, 0x00, 0x00, 0x00, 0x01, 0x00, 0x00, 0x00, 0x40, 0x00, 0x00, 0x00, 0x02, 0x00, 0x00, 0x00, 0xff, 0xff, 0xff, 0xff, 0x03, 0x00, 0x00, 0x00, 0x04, 0x00, 0x04, 0x00, 0x04, 0x00, 0x00, 0x00, 0x20, 0x00, 0x00, 0x00, 0x73, 0x65, 0x72, 0x76, 0x69, 0x6e, 0x67, 0x5f, 0x64, 0x65, 0x66, 0x61, 0x75, 0x6c, 0x74, 0x5f, 0x64, 0x65, 0x6e, 0x73, 0x65, 0x5f, 0x31, 0x37, 0x5f, 0x69, 0x6e, 0x70, 0x75, 0x74, 0x3a, 0x30, 0x00, 0x00, 0x00, 0x00, 0x02, 0x00, 0x00, 0x00, 0x01, 0x00, 0x00, 0x00, 0x03, 0x00, 0x00, 0x00, 0x01, 0x00, 0x00, 0x00, 0x10, 0x00, 0x00, 0x00, 0x0c, 0x00, 0x0c, 0x00, 0x0b, 0x00, 0x00, 0x00, 0x00, 0x00, 0x04, 0x00, 0x0c, 0x00, 0x00, 0x00, 0x09, 0x00, 0x00, 0x00, 0x00, 0x00, 0x00, 0x09 };